{
  "version": "1.0",
  "truncation": null,
  "padding": null,
  "added_tokens": [
    {
      "id": 0,
      "content": "<|endoftext|>",
      "single_word": false,
      "lstrip": false,
      "rstrip": false,
      "normalized": false,
      "special": true
    },
    {
      "id": 1,
      "content": "<|pad|>",
      "single_word": false,
      "lstrip": false,
      "rstrip": false,
      "normalized": false,
      "special": true
    },
    {
      "id": 2,
      "content": "<page>",
      "single_word": false,
      "lstrip": false,
      "rstrip": false,
      "normalized": false,
      "special": true
    },
    {
      "id": 3,
      "content": "</page>",
      "single_word": false,
      "lstrip": false,
      "rstrip": false,
      "normalized": false,
      "special": true
    },
    {
      "id": 4,
      "content": "<region>",
      "single_word": false,
      "lstrip": false,
      "rstrip": false,
      "normalized": false,
      "special": true
    },
    {
      "id": 5,
      "content": "<table>",
      "single_word": false,
      "lstrip": false,
      "rstrip": false,
      "normalized": false,
      "special": true
    },
    {
      "id": 6,
      "content": "<tr>",
      "single_word": false,
      "lstrip": false,
      "rstrip": false,
      "normalized": false,
      "special": true
    },
    {
      "id": 7,
      "content": "<td>",
      "single_word": false,
      "lstrip": false,
      "rstrip": false,
      "normalized": false,
      "special": true
    },
    {
      "id": 8,
      "content": "<formula>",
      "single_word": false,
      "lstrip": false,
      "rstrip": false,
      "normalized": false,
      "special": true
    },
    {
      "id": 9,
      "content": "<eos_doc>",
      "single_word": false,
      "lstrip": false,
      "rstrip": false,
      "normalized": false,
      "special": true
    }
  ],
  "normalizer": null,
  "pre_tokenizer": {
    "type": "ByteLevel",
    "add_prefix_space": false,
    "trim_offsets": true,
    "use_regex": true
  },
  "post_processor": null,
  "decoder": {
    "type": "ByteLevel",
    "add_prefix_space": true,
    "trim_offsets": true,
    "use_regex": true
  },
  "model": {
    "type": "BPE",
    "dropout": null,
    "unk_token": null,
    "continuing_subword_prefix": null,
    "end_of_word_suffix": null,
    "fuse_unk": false,
    "byte_fallback": false,
    "ignore_merges": false,
    "vocab": {
      "<|endoftext|>": 0,
      "<|pad|>": 1,
      "<page>": 2,
      "</page>": 3,
      "<region>": 4,
      "<table>": 5,
      "<tr>": 6,
      "<td>": 7,
      "<formula>": 8,
      "<eos_doc>": 9,
      "!": 10,
      "\"": 11,
      "#": 12,
      "$": 13,
      "%": 14,
      "&": 15,
      "'": 16,
      "(": 17,
      ")": 18,
      "*": 19,
      "+": 20,
      ",": 21,
      "-": 22,
      ".": 23,
      "/": 24,
      "0": 25,
      "1": 26,
      "2": 27,
      "3": 28,
      "4": 29,
      "5": 30,
      "6": 31,
      "7": 32,
      "8": 33,
      "9": 34,
      ":": 35,
      ";": 36,
      "<": 37,
      "=": 38,
      ">": 39,
      "?": 40,
      "@": 41,
      "A": 42,
      "B": 43,
      "C": 44,
      "D": 45,
      "E": 46,
      "F": 47,
      "G": 48,
      "H": 49,
      "I": 50,
      "J": 51,
      "K": 52,
      "L": 53,
      "M": 54,
      "N": 55,
      "O": 56,
      "P": 57,
      "Q": 58,
      "R": 59,
      "S": 60,
      "T": 61,
      "U": 62,
      "V": 63,
      "W": 64,
      "X": 65,
      "Y": 66,
      "Z": 67,
      "[": 68,
      "\\": 69,
      "]": 70,
      "^": 71,
      "_": 72,
      "`": 73,
      "a": 74,
      "b": 75,
      "c": 76,
      "d": 77,
      "e": 78,
      "f": 79,
      "g": 80,
      "h": 81,
      "i": 82,
      "j": 83,
      "k": 84,
      "l": 85,
      "m": 86,
      "n": 87,
      "o": 88,
      "p": 89,
      "q": 90,
      "r": 91,
      "s": 92,
      "t": 93,
      "u": 94,
      "v": 95,
      "w": 96,
      "x": 97,
      "y": 98,
      "z": 99,
      "{": 100,
      "|": 101,
      "}": 102,
      "~": 103,
      "¡": 104,
      "¢": 105,
      "£": 106,
      "¤": 107,
      "¥": 108,
      "¦": 109,
      "§": 110,
      "¨": 111,
      "©": 112,
      "ª": 113,
      "«": 114,
      "¬": 115,
      "®": 116,
      "¯": 117,
      "°": 118,
      "±": 119,
      "²": 120,
      "³": 121,
      "´": 122,
      "µ": 123,
      "¶": 124,
      "·": 125,
      "¸": 126,
      "¹": 127,
      "º": 128,
      "»": 129,
      "¼": 130,
      "½": 131,
      "¾": 132,
      "¿": 133,
      "À": 134,
      "Á": 135,
      "Â": 136,
      "Ã": 137,
      "Ä": 138,
      "Å": 139,
      "Æ": 140,
      "Ç": 141,
      "È": 142,
      "É": 143,
      "Ê": 144,
      "Ë": 145,
      "Ì": 146,
      "Í": 147,
      "Î": 148,
      "Ï": 149,
      "Ð": 150,
      "Ñ": 151,
      "Ò": 152,
      "Ó": 153,
      "Ô": 154,
      "Õ": 155,
      "Ö": 156,
      "×": 157,
      "Ø": 158,
      "Ù": 159,
      "Ú": 160,
      "Û": 161,
      "Ü": 162,
      "Ý": 163,
      "Þ": 164,
      "ß": 165,
      "à": 166,
      "á": 167,
      "â": 168,
      "ã": 169,
      "ä": 170,
      "å": 171,
      "æ": 172,
      "ç": 173,
      "è": 174,
      "é": 175,
      "ê": 176,
      "ë": 177,
      "ì": 178,
      "í": 179,
      "î": 180,
      "ï": 181,
      "ð": 182,
      "ñ": 183,
      "ò": 184,
      "ó": 185,
      "ô": 186,
      "õ": 187,
      "ö": 188,
      "÷": 189,
      "ø": 190,
      "ù": 191,
      "ú": 192,
      "û": 193,
      "ü": 194,
      "ý": 195,
      "þ": 196,
      "ÿ": 197,
      "Ā": 198,
      "ā": 199,
      "Ă": 200,
      "ă": 201,
      "Ą": 202,
      "ą": 203,
      "Ć": 204,
      "ć": 205,
      "Ĉ": 206,
      "ĉ": 207,
      "Ċ": 208,
      "ċ": 209,
      "Č": 210,
      "č": 211,
      "Ď": 212,
      "ď": 213,
      "Đ": 214,
      "đ": 215,
      "Ē": 216,
      "ē": 217,
      "Ĕ": 218,
      "ĕ": 219,
      "Ė": 220,
      "ė": 221,
      "Ę": 222,
      "ę": 223,
      "Ě": 224,
      "ě": 225,
      "Ĝ": 226,
      "ĝ": 227,
      "Ğ": 228,
      "ğ": 229,
      "Ġ": 230,
      "ġ": 231,
      "Ģ": 232,
      "ģ": 233,
      "Ĥ": 234,
      "ĥ": 235,
      "Ħ": 236,
      "ħ": 237,
      "Ĩ": 238,
      "ĩ": 239,
      "Ī": 240,
      "ī": 241,
      "Ĭ": 242,
      "ĭ": 243,
      "Į": 244,
      "į": 245,
      "İ": 246,
      "ı": 247,
      "Ĳ": 248,
      "ĳ": 249,
      "Ĵ": 250,
      "ĵ": 251,
      "Ķ": 252,
      "ķ": 253,
      "ĸ": 254,
      "Ĺ": 255,
      "ĺ": 256,
      "Ļ": 257,
      "ļ": 258,
      "Ľ": 259,
      "ľ": 260,
      "Ŀ": 261,
      "ŀ": 262,
      "Ł": 263,
      "ł": 264,
      "Ń": 265,
      "Ġt": 266,
      "Ġa": 267,
      "he": 268,
      "in": 269,
      "re": 270,
      "Ġthe": 271,
      "Ġo": 272,
      "er": 273,
      "on": 274,
      "at": 275,
      "Ġs": 276,
      "en": 277,
      "Ġc": 278,
      "Ġw": 279,
      "es": 280,
      "is": 281,
      "nd": 282,
      "it": 283,
      "or": 284,
      "Ġp": 285,
      "Ġof": 286,
      "ed": 287,
      "al": 288,
      "Ġb": 289,
      "Ġf": 290,
      "an": 291,
      "Ġin": 292,
      "ar": 293,
      "ing": 294,
      "ou": 295,
      "Ġm": 296,
      "Ġand": 297,
      "ic": 298,
      "Ġto": 299,
      "ion": 300,
      "Ġd": 301,
      "le": 302,
      "ro": 303,
      "as": 304,
      "Ġh": 305,
      "ent": 306,
      "Ġth": 307,
      "ct": 308,
      "il": 309,
      "Ġe": 310,
      "Ġre": 311,
      "ĠT": 312,
      "om": 313,
      "Ġl": 314,
      "Ġn": 315,
      "ve": 316,
      "st": 317,
      "ly": 318,
      "Ġbe": 319,
      "Ġis": 320,
      "ĠA": 321,
      "ol": 322,
      "se": 323,
      "ation": 324,
      "Ġg": 325,
      "id": 326,
      "im": 327,
      "ĠS": 328,
      "ce": 329,
      "ut": 330,
      "âĢ": 331,
      "et": 332,
      "ot": 333,
      "ĠI": 334,
      "ra": 335,
      "ur": 336,
      "ch": 337,
      "ĠC": 338,
      "ow": 339,
      "Ġfor": 340,
      "ig": 341,
      "Ġthat": 342,
      "Ġon": 343,
      "Ġu": 344,
      "ver": 345,
      "ĠThe": 346,
      "Ġst": 347,
      "ir": 348,
      "am": 349,
      "ul": 350,
      "ay": 351,
      "ad": 352,
      "el": 353,
      "Ġas": 354,
      "ĠM": 355,
      "ith": 356,
      "her": 357,
      "Ġy": 358,
      "Ġpro": 359,
      "Ġcon": 360,
      "Ġ1": 361,
      "Ġan": 362,
      "ĠP": 363,
      "Ġwh": 364,
      "Ġwith": 365,
      "Ġare": 366,
      "Ġ(": 367,
      "Ġor": 368,
      "ter": 369,
      "if": 370,
      "Ġit": 371,
      "Ġal": 372,
      "ĠB": 373,
      "od": 374,
      "ment": 375,
      "ist": 376,
      "th": 377,
      "ge": 378,
      "op": 379,
      "ers": 380,
      "ĠH": 381,
      "ate": 382,
      "Ġde": 383,
      "ĠW": 384,
      "ies": 385,
      "ill": 386,
      "us": 387,
      "ere": 388,
      "Ġyou": 389,
      "Ġex": 390,
      "ab": 391,
      "Ġhe": 392,
      "res": 393,
      "um": 394,
      "Ġcom": 395,
      "ess": 396,
      "ity": 397,
      "ect": 398,
      "Ġby": 399,
      "ĠD": 400,
      "est": 401,
      "rom": 402,
      "ld": 403,
      "ore": 404,
      "os": 405,
      "Ġha": 406,
      "ĠF": 407,
      "Ġsu": 408,
      "ri": 409,
      "Ġat": 410,
      "em": 411,
      "ĠE": 412,
      "ĠR": 413,
      "ac": 414,
      "Ġwas": 415,
      "Ġ-": 416,
      "Ġv": 417,
      "ive": 418,
      "nt": 419,
      "qu": 420,
      "ain": 421,
      "ĠN": 422,
      "pp": 423,
      "igh": 424,
      "ke": 425,
      "ant": 426,
      "Ġfrom": 427,
      "ud": 428,
      "Ġ2": 429,
      "and": 430,
      "Ġch": 431,
      "oc": 432,
      "iv": 433,
      "ĠG": 434,
      "Ġne": 435,
      "Ġse": 436,
      "ort": 437,
      "ĠL": 438,
      "Ġr": 439,
      "un": 440,
      "ure": 441,
      "Ġnot": 442,
      "art": 443,
      "âĢĻ": 444,
      "ical": 445,
      "Ġcan": 446,
      "ial": 447,
      "Ġhave": 448,
      "00": 449,
      "ĠâĢ": 450,
      "Ġle": 451,
      "og": 452,
      "Ġsh": 453,
      "Ġen": 454,
      "ĠO": 455,
      "Ġsp": 456,
      "ĠIn": 457,
      "ight": 458,
      "ich": 459,
      "Ġthis": 460,
      "all": 461,
      "pt": 462,
      "rou": 463,
      "ould": 464,
      "Ġab": 465,
      "ther": 466,
      "gh": 467,
      "Ġwor": 468,
      "our": 469,
      "ost": 470,
      "ions": 471,
      "ĠJ": 472,
      "ard": 473,
      "ome": 474,
      "ated": 475,
      "Ġwe": 476,
      "ine": 477,
      "ust": 478,
      "ĠU": 479,
      "ell": 480,
      "'s": 481,
      "out": 482,
      "per": 483,
      "ear": 484,
      "ia": 485,
      "Ġus": 486,
      "Ġ\"": 487,
      "Ġint": 488,
      "ans": 489,
      "ast": 490,
      "ff": 491,
      "Ġtheir": 492,
      "Ġim": 493,
      "Ġwhich": 494,
      "act": 495,
      "pl": 496,
      "Ġpl": 497,
      "Ġk": 498,
      "ec": 499,
      "ous": 500,
      "du": 501,
      "age": 502,
      "ide": 503,
      "ag": 504,
      "ĠTh": 505,
      "ew": 506,
      "are": 507,
      "Ġwhe": 508,
      "Ġall": 509,
      "ak": 510,
      "Ġcont": 511,
      "iz": 512,
      "Ġdis": 513,
      "ib": 514,
      "Ġthey": 515,
      "end": 516,
      "cc": 517,
      "Ġad": 518,
      "ong": 519,
      "ap": 520,
      "ru": 521,
      "Ġhas": 522,
      "ary": 523,
      "Ġinc": 524,
      "Ġmore": 525,
      "ult": 526,
      "ations": 527,
      "Ġ19": 528,
      "vel": 529,
      "ood": 530,
      "ater": 531,
      "Ġcomp": 532,
      "Ġwere": 533,
      "orm": 534,
      "Ġwill": 535,
      "ip": 536,
      "Ġres": 537,
      "Ġbut": 538,
      "Ġdo": 539,
      "ire": 540,
      "Ġother": 541,
      "Ġcl": 542,
      "ence": 543,
      "so": 544,
      "Ġper": 545,
      "ual": 546,
      "ild": 547,
      "ĠâĢľ": 548,
      "âĢĿ": 549,
      "Ġone": 550,
      "Ġman": 551,
      "ry": 552,
      "ok": 553,
      "able": 554,
      "ep": 555,
      "ose": 556,
      "Ġme": 557,
      "ĠSt": 558,
      "ind": 559,
      "ance": 560,
      "Ġj": 561,
      "ress": 562,
      "ach": 563,
      "ass": 564,
      "ign": 565,
      "ents": 566,
      "Ġar": 567,
      "Ġyour": 568,
      "ack": 569,
      "Ġpart": 570,
      "ber": 571,
      "Ġhis": 572,
      "Ġun": 573,
      "reat": 574,
      "ĠK": 575,
      "ction": 576,
      "ame": 577,
      "ice": 578,
      "au": 579,
      "ace": 580,
      "ase": 581,
      "ord": 582,
      "av": 583,
      "Ġalso": 584,
      "Ġte": 585,
      "ory": 586,
      "Ġwho": 587,
      "Ġapp": 588,
      "ition": 589,
      ").": 590,
      "ount": 591,
      "ish": 592,
      "ake": 593,
      "Ġev": 594,
      "Ġso": 595,
      "Ġimp": 596,
      "Ġpre": 597,
      "Ġout": 598,
      "ime": 599,
      "Ġcomm": 600,
      "Ġabout": 601,
      "ub": 602,
      "olog": 603,
      "very": 604,
      "one": 605,
      "ĠIt": 606,
      "ens": 607,
      "Ġinf": 608,
      "ci": 609,
      "Ġstud": 610,
      "ree": 611,
      "ĠCh": 612,
      "ound": 613,
      "ĠV": 614,
      "ite": 615,
      "ors": 616,
      "ian": 617,
      "Ġyear": 618,
      "Ġsy": 619,
      "mer": 620,
      "Ġpe": 621,
      "ces": 622,
      "ue": 623,
      "Ġup": 624,
      "ĠThis": 625,
      "Ġthan": 626,
      "Ġmay": 627,
      "Ġbeen": 628,
      "ang": 629,
      "Ġwork": 630,
      "ile": 631,
      "now": 632,
      "Ġthem": 633,
      "Ġbec": 634,
      "ates": 635,
      "ric": 636,
      "Ġrec": 637,
      "Ġits": 638,
      "low": 639,
      "Ġsome": 640,
      "ook": 641,
      "Ġag": 642,
      "ie": 643,
      "Ġthere": 644,
      "ike": 645,
      "Ġhad": 646,
      "Ġ3": 647,
      "Ġgo": 648,
      "Ġqu": 649,
      "ail": 650,
      "ays": 651,
      "vers": 652,
      "nder": 653,
      "ons": 654,
      "Ġinto": 655,
      "ough": 656,
      "ph": 657,
      "erv": 658,
      "rit": 659,
      "Ġtra": 660,
      "ople": 661,
      "ĠY": 662,
      "Ġwhen": 663,
      "ond": 664,
      "tern": 665,
      "ings": 666,
      "iff": 667,
      "Ġwould": 668,
      "rough": 669,
      "ms": 670,
      "ren": 671,
      "Ġthese": 672,
      "Ġtw": 673,
      "Ġsa": 674,
      "Ġover": 675,
      "lic": 676,
      "Ġra": 677,
      "irst": 678,
      "Ġtime": 679,
      "ational": 680,
      "te": 681,
      "Ġind": 682,
      "lud": 683,
      "ks": 684,
      "Ġnew": 685,
      "ove": 686,
      "Ġcol": 687,
      "Ġrep": 688,
      "lect": 689,
      "Ġcons": 690,
      "Ġro": 691,
      "ally": 692,
      "Ġdes": 693,
      "ts": 694,
      "ject": 695,
      "ll": 696,
      "Ġact": 697,
      "Ġunder": 698,
      "ob": 699,
      "Ġpeople": 700,
      "Ġgen": 701,
      "ys": 702,
      "ause": 703,
      "hed": 704,
      "Ġmost": 705,
      "red": 706,
      "ific": 707,
      "wn": 708,
      "Ġbl": 709,
      "ĠUn": 710,
      "Ġ200": 711,
      "ments": 712,
      "Ġrel": 713,
      "Ġknow": 714,
      "Ġbet": 715,
      "ities": 716,
      "Ġuse": 717,
      "velop": 718,
      "stem": 719,
      "Ġhow": 720,
      "we": 721,
      "Ġdiff": 722,
      "Ġ20": 723,
      "Ġacc": 724,
      "Ġsuch": 725,
      "Ġno": 726,
      "Ġany": 727,
      "),": 728,
      "Ġif": 729,
      "Ġtr": 730,
      "les": 731,
      "ative": 732,
      "Ġlike": 733,
      "Ġprov": 734,
      "ĠHe": 735,
      "ning": 736,
      "Ġour": 737,
      "Ġfirst": 738,
      "ious": 739,
      "Ġoff": 740,
      "Ġinclud": 741,
      "ced": 742,
      "Ġonly": 743,
      "ular": 744,
      "Ġchild": 745,
      "iss": 746,
      "Ġeff": 747,
      "ple": 748,
      "Ġtwo": 749,
      "alth": 750,
      "Ġpo": 751,
      "Ġph": 752,
      "rib": 753,
      "erm": 754,
      "ov": 755,
      "Ġreg": 756,
      "Ġam": 757,
      "Ġspec": 758,
      "Ġused": 759,
      "Ġthrough": 760,
      "int": 761,
      "oss": 762,
      "Ġexp": 763,
      "Ġneed": 764,
      "ool": 765,
      "ied": 766,
      "Ġwhat": 767,
      "ĠAs": 768,
      "fter": 769,
      "Ġdevelop": 770,
      "Ġmany": 771,
      "ath": 772,
      "ating": 773,
      "Ġ4": 774,
      "cess": 775,
      "Ġac": 776,
      "Ġsur": 777,
      "uc": 778,
      "ne": 779,
      "Ġob": 780,
      "ĠWh": 781,
      "Ġprodu": 782,
      "ics": 783,
      "Ġem": 784,
      "als": 785,
      "ise": 786,
      "uring": 787,
      "hen": 788,
      "Ġatt": 789,
      "Ġsystem": 790,
      "round": 791,
      "ower": 792,
      "Ġsc": 793,
      "aw": 794,
      "iet": 795,
      "ility": 796,
      "ink": 797,
      "Ġyears": 798,
      "rop": 799,
      "ert": 800,
      "ark": 801,
      "yp": 802,
      "arch": 803,
      "oth": 804,
      "ife": 805,
      "ful": 806,
      "old": 807,
      "cy": 808,
      "ible": 809,
      "Ġdec": 810,
      "ram": 811,
      "sel": 812,
      "ution": 813,
      "ade": 814,
      "Ġass": 815,
      "Ġwater": 816,
      "Ġ5": 817,
      "ten": 818,
      "meric": 819,
      "ased": 820,
      "ĠAn": 821,
      "Ġpr": 822,
      "Ġ18": 823,
      "row": 824,
      "ange": 825,
      "ology": 826,
      "own": 827,
      "ited": 828,
      "Ġadd": 829,
      "Ġinv": 830,
      "Ġhel": 831,
      "Ġsub": 832,
      "Ġfe": 833,
      "ble": 834,
      "Ġrem": 835,
      "ures": 836,
      "Ġpres": 837,
      "gan": 838,
      "Ġinter": 839,
      "ists": 840,
      "Ġcould": 841,
      "Ġfl": 842,
      "Ġco": 843,
      "Ġsupp": 844,
      "Ġshould": 845,
      "fore": 846,
      "ween": 847,
      "ered": 848,
      "Ġhelp": 849,
      "eth": 850,
      "Ġpol": 851,
      "ident": 852,
      "Ġdiffere": 853,
      "Ġwhere": 854,
      "uch": 855,
      "ily": 856,
      "ĠAmeric": 857,
      "Ġwell": 858,
      "hes": 859,
      "Ġbetween": 860,
      "Ġear": 861,
      "its": 862,
      "gy": 863,
      "ick": 864,
      "Ġrese": 865,
      "ract": 866,
      "Ġsaid": 867,
      "Ġnum": 868,
      "ft": 869,
      "ormation": 870,
      "ism": 871,
      "chn": 872,
      "..": 873,
      "chool": 874,
      "ivers": 875,
      "Ġsm": 876,
      "xt": 877,
      "Ġtrans": 878,
      "Ġcent": 879,
      "ĠAl": 880,
      "ĠFor": 881,
      "ict": 882,
      "Ġ201": 883,
      "Ġcount": 884,
      "Ġhigh": 885,
      "ever": 886,
      "land": 887,
      "Ġform": 888,
      "vern": 889,
      "Ġmod": 890,
      "Ġfound": 891,
      "ins": 892,
      "Ġpers": 893,
      "ĠCom": 894,
      "ĠPro": 895,
      "ont": 896,
      "Ġher": 897,
      "ural": 898,
      "urn": 899,
      "ants": 900,
      "Ġlar": 901,
      "Ġmed": 902,
      "ĠRe": 903,
      "Ġref": 904,
      "Ġexam": 905,
      "Ġpub": 906,
      "ature": 907,
      "Ġcall": 908,
      "Ġinst": 909,
      "itt": 910,
      "Ġjust": 911,
      "ines": 912,
      "Ġbu": 913,
      "Ġhum": 914,
      "ually": 915,
      "ĠEn": 916,
      "Ġworld": 917,
      "Ġafter": 918,
      "ĠWe": 919,
      "Ġlong": 920,
      "Ġmake": 921,
      "Ġget": 922,
      "other": 923,
      "ved": 924,
      "Ġthose": 925,
      "Ġthen": 926,
      "Ġdisc": 927,
      "Ġed": 928,
      "ĠIf": 929,
      "Ġdet": 930,
      "oy": 931,
      "eral": 932,
      "cept": 933,
      "Ġeven": 934,
      "Ġbecause": 935,
      ".\"": 936,
      "Ġdef": 937,
      "Ġhealth": 938,
      "vent": 939,
      "Ġvery": 940,
      "Ġeffect": 941,
      "Ġright": 942,
      "cent": 943,
      "iew": 944,
      "ically": 945,
      "Ġloc": 946,
      "Ġext": 947,
      "Ġprog": 948,
      "Ġimport": 949,
      "Ġdist": 950,
      "Ġway": 951,
      "Ġsee": 952,
      "ork": 953,
      "ases": 954,
      "Ġsign": 955,
      "Ġsim": 956,
      "roup": 957,
      "ĠâĢĵ": 958,
      "Ġfol": 959,
      "cer": 960,
      "Ġincre": 961,
      "Ġcar": 962,
      "ck": 963,
      "Ġpat": 964,
      "Ġbeing": 965,
      "Ġ6": 966,
      "led": 967,
      "Ġresp": 968,
      "Ġinformation": 969,
      "get": 970,
      "Ġmy": 971,
      "ward": 972,
      "ds": 973,
      "ives": 974,
      "Ġca": 975,
      "Ġfact": 976,
      "Ġsec": 977,
      "aking": 978,
      "imes": 979,
      "ues": 980,
      "Ġexper": 981,
      "Ġpartic": 982,
      "Ġcommun": 983,
      "Ġsame": 984,
      "ata": 985,
      "ness": 986,
      "Ġfam": 987,
      "Ġmuch": 988,
      "ĠThey": 989,
      "arm": 990,
      "Ġmade": 991,
      "Ġgra": 992,
      "Ġdifferent": 993,
      "io": 994,
      "ĠHow": 995,
      "ather": 996,
      "ĠAr": 997,
      "ĠNew": 998,
      "Ġchildren": 999,
      "iron": 1000,
      "Ġtechn": 1001,
      "Ġdep": 1002,
      "cient": 1003,
      "Ġmon": 1004,
      "The": 1005,
      "Ġ|": 1006,
      "ĠBut": 1007,
      "ef": 1008,
      "ruct": 1009,
      "ĠSe": 1010,
      "Ġeach": 1011,
      "Ġevery": 1012,
      "Ġduring": 1013,
      "Ġshe": 1014,
      "ages": 1015,
      "Ġset": 1016,
      "Ġcell": 1017,
      "Ġke": 1018,
      "Ġresult": 1019,
      "ran": 1020,
      "Ġvar": 1021,
      "Ġown": 1022,
      "ros": 1023,
      "iversity": 1024,
      "Ġlife": 1025,
      "Ġent": 1026,
      "ars": 1027,
      "ized": 1028,
      "orn": 1029,
      "Ġback": 1030,
      "ĠInd": 1031,
      "Ġend": 1032,
      "und": 1033,
      "ection": 1034,
      "Ġart": 1035,
      "Ġaut": 1036,
      "Ġtyp": 1037,
      "con": 1038,
      "Ġagain": 1039,
      "Ġstate": 1040,
      "gg": 1041,
      "Ġcre": 1042,
      "Ġrequ": 1043,
      "ince": 1044,
      "any": 1045,
      "Ġlear": 1046,
      ".âĢĿ": 1047,
      "form": 1048,
      "Ġfollow": 1049,
      "ergy": 1050,
      "omen": 1051,
      "ty": 1052,
      "Ġpop": 1053,
      "Ġgroup": 1054,
      "000": 1055,
      "Ġmin": 1056,
      "Ġhist": 1057,
      "Ġgovern": 1058,
      "Ġprocess": 1059,
      "Ġlevel": 1060,
      "ting": 1061,
      "Ġhim": 1062,
      "Ġ7": 1063,
      "ĠThere": 1064,
      "Ġshow": 1065,
      "19": 1066,
      "Ġsoc": 1067,
      "Ġdoes": 1068,
      "ale": 1069,
      "Ġschool": 1070,
      "ute": 1071,
      "ished": 1072,
      "Ġread": 1073,
      "Ġnow": 1074,
      "Ġmem": 1075,
      "Ġlead": 1076,
      "Ġstudy": 1077,
      "ven": 1078,
      "hem": 1079,
      "ĠSp": 1080,
      "ĠIs": 1081,
      "ize": 1082,
      "irect": 1083,
      "hip": 1084,
      "ined": 1085,
      "viron": 1086,
      "ody": 1087,
      "ax": 1088,
      "ury": 1089,
      "Ġcur": 1090,
      "Ġins": 1091,
      "Ġpower": 1092,
      "ex": 1093,
      "Ġcomple": 1094,
      "Ġfind": 1095,
      "Ġproble": 1096,
      "Ġboth": 1097,
      "Ġbefore": 1098,
      "Ġimportant": 1099,
      "Ġsk": 1100,
      "oh": 1101,
      "Ġocc": 1102,
      "ĠAnd": 1103,
      "ices": 1104,
      "Ġav": 1105,
      "inal": 1106,
      "Ġsmall": 1107,
      "Ġtest": 1108,
      "ient": 1109,
      "Ġperson": 1110,
      "Ġstudents": 1111,
      "Ġexpl": 1112,
      "'t": 1113,
      "Ġgood": 1114,
      "nce": 1115,
      "iel": 1116,
      "ix": 1117,
      "read": 1118,
      "Ġprovid": 1119,
      "||": 1120,
      "imate": 1121,
      "Ġtreat": 1122,
      "ron": 1123,
      "Ġ10": 1124,
      "Ġthree": 1125,
      "ring": 1126,
      "Ġgl": 1127,
      "Ġprot": 1128,
      "Ġnumber": 1129,
      "ah": 1130,
      "ral": 1131,
      "rol": 1132,
      ".,": 1133,
      "der": 1134,
      "ially": 1135,
      "Ġdid": 1136,
      "Ġposs": 1137,
      "hers": 1138,
      "Ġdise": 1139,
      "Ġlook": 1140,
      "Ġdown": 1141,
      "ving": 1142,
      "Ġoften": 1143,
      "vironment": 1144,
      "Ġless": 1145,
      "Ġland": 1146,
      "Ġ199": 1147,
      "Ġreport": 1148,
      "ger": 1149,
      "Ġ8": 1150,
      ",\"": 1151,
      "Ġusing": 1152,
      "up": 1153,
      "Ġorgan": 1154,
      "Ġfood": 1155,
      "Ġser": 1156,
      "Ġbel": 1157,
      "ters": 1158,
      "com": 1159,
      "ves": 1160,
      "Ġelect": 1161,
      "ected": 1162,
      "air": 1163,
      "Ġvis": 1164,
      "ital": 1165,
      "oun": 1166,
      "Ġdata": 1167,
      "Ġcontin": 1168,
      "Ġchar": 1169,
      "ivid": 1170,
      "Ġresearch": 1171,
      "cl": 1172,
      "Ġmust": 1173,
      "Ġwhile": 1174,
      "Ġserv": 1175,
      "Ġhuman": 1176,
      "Ġest": 1177,
      "Ġlarge": 1178,
      "Ġday": 1179,
      "Ġgreat": 1180,
      "ulation": 1181,
      "ier": 1182,
      "aj": 1183,
      "self": 1184,
      "Ġcour": 1185,
      "stit": 1186,
      "Ġval": 1187,
      "ains": 1188,
      "ared": 1189,
      "gen": 1190,
      "Ġtake": 1191,
      "Ġcalled": 1192,
      "ination": 1193,
      "Ġpublic": 1194,
      "ĠAt": 1195,
      "Ġhand": 1196,
      "Ġret": 1197,
      "Ġmain": 1198,
      "ave": 1199,
      "day": 1200,
      "Ġ9": 1201,
      "rent": 1202,
      "Ġexample": 1203,
      "Ġcommon": 1204,
      "Ġstr": 1205,
      "Ġplan": 1206,
      "Ġclass": 1207,
      "stand": 1208,
      "Ġsol": 1209,
      "Ġgrow": 1210,
      "ock": 1211,
      "Ġfun": 1212,
      "Ġconf": 1213,
      "ull": 1214,
      "ĠAmerican": 1215,
      "bers": 1216,
      "âĢĶ": 1217,
      "dition": 1218,
      "ĠDe": 1219,
      "uss": 1220,
      "Ġris": 1221,
      "Ġsupport": 1222,
      "Ġdesign": 1223,
      "orth": 1224,
      "outh": 1225,
      "ouse": 1226,
      "ĠCon": 1227,
      "akes": 1228,
      "ĠThese": 1229,
      "lear": 1230,
      "ality": 1231,
      "ĠUniversity": 1232,
      "Ġequ": 1233,
      "Ġactiv": 1234,
      "ĠWhen": 1235,
      "osed": 1236,
      "itions": 1237,
      "Ġaround": 1238,
      "ior": 1239,
      "Ġthough": 1240,
      "Ġconsid": 1241,
      "ash": 1242,
      "Ġmet": 1243,
      "the": 1244,
      "way": 1245,
      "iety": 1246,
      "Ġlaw": 1247,
      "Ġincluding": 1248,
      "Ġgener": 1249,
      "ians": 1250,
      "Ġop": 1251,
      "iqu": 1252,
      "Ġgovernment": 1253,
      "Ġsom": 1254,
      "Ġaff": 1255,
      "ton": 1256,
      "Ġknown": 1257,
      "ross": 1258,
      "cience": 1259,
      "ĠTo": 1260,
      "iver": 1261,
      "Ġredu": 1262,
      "acter": 1263,
      "Ġstill": 1264,
      "Ġwrit": 1265,
      "Ġenergy": 1266,
      "Ġmat": 1267,
      "erest": 1268,
      "Ġadv": 1269,
      "ional": 1270,
      "Ġallow": 1271,
      "Ġtem": 1272,
      "Ġcor": 1273,
      "Ġstand": 1274,
      "Ġbody": 1275,
      "ĠPh": 1276,
      "man": 1277,
      "ĠWhat": 1278,
      "conom": 1279,
      "Ġdirect": 1280,
      "Ġwithout": 1281,
      "ĠYou": 1282,
      "iod": 1283,
      "reen": 1284,
      "Ġeduc": 1285,
      "Ġthink": 1286,
      "ĠRes": 1287,
      "Ġbo": 1288,
      "de": 1289,
      "Ġbook": 1290,
      "Ġstart": 1291,
      "Ġplace": 1292,
      "oci": 1293,
      "amp": 1294,
      "mon": 1295,
      "ense": 1296,
      "illion": 1297,
      "Ġdesc": 1298,
      "20": 1299,
      "ted": 1300,
      "Ġmight": 1301,
      "ium": 1302,
      "ources": 1303,
      "ĠAd": 1304,
      "Ġfew": 1305,
      "ĠSh": 1306,
      "Ġquest": 1307,
      "gin": 1308,
      "Ġcare": 1309,
      ",âĢĿ": 1310,
      "ries": 1311,
      "raph": 1312,
      "Ġgu": 1313,
      "Ġappro": 1314,
      "Ġpercent": 1315,
      "rain": 1316,
      "ired": 1317,
      "Ġcap": 1318,
      "Ġchang": 1319,
      "Ġanother": 1320,
      "Ġmil": 1321,
      "Ġpresent": 1322,
      "Ġagainst": 1323,
      "ission": 1324,
      "Ġbeh": 1325,
      "els": 1326,
      "aterial": 1327,
      "ording": 1328,
      "Ġide": 1329,
      "Ġenvironment": 1330,
      "ĠCan": 1331,
      "ertain": 1332,
      "less": 1333,
      "10": 1334,
      "Ġchange": 1335,
      "Ġsl": 1336,
      "Ġwomen": 1337,
      "Ġiss": 1338,
      "ris": 1339,
      "Ġbuild": 1340,
      "ĠOn": 1341,
      "iving": 1342,
      "ization": 1343,
      "ids": 1344,
      "arent": 1345,
      "ien": 1346,
      "Ġphys": 1347,
      "ration": 1348,
      "iven": 1349,
      "Ġcaus": 1350,
      "Ġleg": 1351,
      "me": 1352,
      "ason": 1353,
      "ĠCol": 1354,
      "here": 1355,
      "Ġinterest": 1356,
      "lished": 1357,
      "ajor": 1358,
      "ĠUnited": 1359,
      "Ġpract": 1360,
      "ained": 1361,
      "ĠEx": 1362,
      "lish": 1363,
      "ner": 1364,
      "eng": 1365,
      "ability": 1366,
      "Ġpass": 1367,
      "att": 1368,
      "Ġrest": 1369,
      "irc": 1370,
      "Ġdisease": 1371,
      "Ġwithin": 1372,
      "Ġmar": 1373,
      "Ġdevelopment": 1374,
      "rist": 1375,
      "ug": 1376,
      "Ġsays": 1377,
      "ified": 1378,
      "ccess": 1379,
      "Ġbelie": 1380,
      "esp": 1381,
      "ret": 1382,
      "Ġ&": 1383,
      "ator": 1384,
      "ering": 1385,
      "Ġunderstand": 1386,
      "az": 1387,
      "Ġarea": 1388,
      "ern": 1389,
      "Ġeng": 1390,
      "atural": 1391,
      "ividual": 1392,
      "Ġscient": 1393,
      "itive": 1394,
      "Ġwar": 1395,
      "ĠLe": 1396,
      "Ġsay": 1397,
      "Ġbas": 1398,
      "oms": 1399,
      "ĠHowever": 1400,
      "Ġant": 1401,
      "Ġ15": 1402,
      "Ġident": 1403,
      "Ġeas": 1404,
      "use": 1405,
      "Ġcontrol": 1406,
      "âĢĵ": 1407,
      "ption": 1408,
      "Ġanim": 1409,
      "ological": 1410,
      "line": 1411,
      "osp": 1412,
      "Ġ'": 1413,
      "Ġnear": 1414,
      "Ġ[": 1415,
      "Ġprogram": 1416,
      "ĠEng": 1417,
      "hor": 1418,
      "ived": 1419,
      "Ġimm": 1420,
      "ats": 1421,
      "ĠCl": 1422,
      "ĠNational": 1423,
      "ote": 1424,
      "Ġmaterial": 1425,
      "Ġoper": 1426,
      "ential": 1427,
      "Ġproject": 1428,
      "Ġpoint": 1429,
      "Ġearly": 1430,
      "rodu": 1431,
      "Ġproduct": 1432,
      "Ġlast": 1433,
      "ield": 1434,
      "Ġeconom": 1435,
      "Ġspe": 1436,
      "Ġbro": 1437,
      "to": 1438,
      "Ġoccur": 1439,
      "Ġve": 1440,
      "Ġpar": 1441,
      "ently": 1442,
      "bs": 1443,
      "ik": 1444,
      "ets": 1445,
      "Ġsecond": 1446,
      "ank": 1447,
      "ethod": 1448,
      "Ġinclude": 1449,
      "Ġhistory": 1450,
      "arc": 1451,
      "Ġlight": 1452,
      "Ġsever": 1453,
      "atic": 1454,
      "Ġfamily": 1455,
      "Ġprof": 1456,
      "angu": 1457,
      "ned": 1458,
      "Ġold": 1459,
      "Ġopp": 1460,
      "erc": 1461,
      "Ġpur": 1462,
      "Ġdon": 1463,
      "Ġindividual": 1464,
      "Ġlow": 1465,
      "Ġbre": 1466,
      "Ġcells": 1467,
      "Ġspecies": 1468,
      "Ġparticular": 1469,
      "ĠStates": 1470,
      "Ġblood": 1471,
      "Ġorig": 1472,
      "Ġmajor": 1473,
      "Ġele": 1474,
      "Ġwant": 1475,
      "Ġmeas": 1476,
      "ining": 1477,
      "Ġunt": 1478,
      "Ġorder": 1479,
      "ĠGod": 1480,
      "ĠQ": 1481,
      "cing": 1482,
      "Ġter": 1483,
      "oid": 1484,
      "sy": 1485,
      "Ġben": 1486,
      "Ġsocial": 1487,
      "Ġconst": 1488,
      "alk": 1489,
      "ittle": 1490,
      "ograph": 1491,
      "ames": 1492,
      "Ġcult": 1493,
      "Ġpos": 1494,
      "ource": 1495,
      "Ġpot": 1496,
      "Ġavail": 1497,
      "ĠSo": 1498,
      "ĠâĢĶ": 1499,
      "Ġhome": 1500,
      "ina": 1501,
      "Ġ17": 1502,
      "Ġpolit": 1503,
      "Ġtri": 1504,
      "Ġbecome": 1505,
      "Ġprovide": 1506,
      "ories": 1507,
      "rap": 1508,
      "Ġfore": 1509,
      "Ġhere": 1510,
      "Ġcurrent": 1511,
      "Ġtre": 1512,
      "sp": 1513,
      "Ġproper": 1514,
      "Ġsym": 1515,
      "Ġmus": 1516,
      "ards": 1517,
      "Ġtop": 1518,
      "Ġtoo": 1519,
      "Ġinvol": 1520,
      "Ġlim": 1521,
      "Ġfour": 1522,
      "Ġsince": 1523,
      "ĠZ": 1524,
      "Ġcountry": 1525,
      "Ġmove": 1526,
      "ify": 1527,
      "Ġobject": 1528,
      "Ġseveral": 1529,
      "Ġprop": 1530,
      "Ġname": 1531,
      "ention": 1532,
      "Ġmen": 1533,
      "Ġmeans": 1534,
      "though": 1535,
      "Ġprom": 1536,
      "ĠAll": 1537,
      "Ġdev": 1538,
      "view": 1539,
      "ision": 1540,
      "Ġsit": 1541,
      "Ġpress": 1542,
      "idence": 1543,
      "ĠBe": 1544,
      "Ġlocal": 1545,
      "ww": 1546,
      "ternational": 1547,
      "Ġmark": 1548,
      "Ġlater": 1549,
      "ĠPl": 1550,
      "Ġplay": 1551,
      "Ġair": 1552,
      "ĠComm": 1553,
      "inc": 1554,
      "ĠCent": 1555,
      "Ġperiod": 1556,
      "Ġrisk": 1557,
      "Ġpossible": 1558,
      "ĠMed": 1559,
      "Ġbest": 1560,
      "olution": 1561,
      "Ġet": 1562,
      "par": 1563,
      "iter": 1564,
      "ended": 1565,
      "Ġaddition": 1566,
      "Ġopen": 1567,
      "resent": 1568,
      "Ġfre": 1569,
      "Ġel": 1570,
      "Ġtreatment": 1571,
      "Ġfar": 1572,
      "12": 1573,
      "urop": 1574,
      "Ġmethod": 1575,
      "ples": 1576,
      "ole": 1577,
      "Ġimpro": 1578,
      "Ġtimes": 1579,
      "Ġview": 1580,
      "ably": 1581,
      "ged": 1582,
      "ients": 1583,
      "ĠOne": 1584,
      "lu": 1585,
      "iness": 1586,
      "Ġpri": 1587,
      "ware": 1588,
      "Ġperform": 1589,
      "Ġfin": 1590,
      "Ġanal": 1591,
      "Ġhig": 1592,
      "Ġsuccess": 1593,
      "ĠEar": 1594,
      "Ġavailable": 1595,
      "ek": 1596,
      "ways": 1597,
      "gn": 1598,
      "abor": 1599,
      "Ġcertain": 1600,
      "Ġareas": 1601,
      "Ġbetter": 1602,
      "Ġrun": 1603,
      "ĠChrist": 1604,
      "Ġbir": 1605,
      "ĠOr": 1606,
      "Ġamong": 1607,
      "Ġche": 1608,
      "une": 1609,
      "ental": 1610,
      "...": 1611,
      "tt": 1612,
      "Ġpost": 1613,
      "face": 1614,
      "Ġfollowing": 1615,
      "Ġreal": 1616,
      "Ġrece": 1617,
      "ĠTe": 1618,
      "Ġpain": 1619,
      "ĠâĢĺ": 1620,
      "Ġbi": 1621,
      "Ġ12": 1622,
      "ohn": 1623,
      "Ġnon": 1624,
      "Ġcause": 1625,
      "Ġsaf": 1626,
      "ĠAf": 1627,
      "Ġmean": 1628,
      "Ġkeep": 1629,
      "Ġhapp": 1630,
      "18": 1631,
      "Ġdeterm": 1632,
      "ience": 1633,
      "Ġothers": 1634,
      "Ġable": 1635,
      "ither": 1636,
      "urope": 1637,
      "Ġcase": 1638,
      "Ġput": 1639,
      "Ġ.": 1640,
      "Ġbased": 1641,
      "Ġcentury": 1642,
      "Ġ$": 1643,
      "Ġcond": 1644,
      "Ġ16": 1645,
      "ills": 1646,
      "Ġfree": 1647,
      "Ġthings": 1648,
      "Ġlangu": 1649,
      "Ġstruct": 1650,
      "not": 1651,
      "Ġcost": 1652,
      "ised": 1653,
      "Ġgiven": 1654,
      "Ġmonth": 1655,
      "Ġuntil": 1656,
      "ĠSome": 1657,
      "Ġhead": 1658,
      "por": 1659,
      "Ġlittle": 1660,
      "Ġrad": 1661,
      "urther": 1662,
      "Ġfac": 1663,
      "Ġaccess": 1664,
      "ploy": 1665,
      "Ġ198": 1666,
      "ym": 1667,
      "ggest": 1668,
      "Ġobs": 1669,
      "ilar": 1670,
      "Ġdel": 1671,
      "rid": 1672,
      "ley": 1673,
      "icle": 1674,
      "ends": 1675,
      "ling": 1676,
      "over": 1677,
      "etic": 1678,
      "Ġseem": 1679,
      "Ġturn": 1680,
      "Ġcal": 1681,
      "aken": 1682,
      "Ġlist": 1683,
      "ĠWith": 1684,
      "ots": 1685,
      "Ġsignific": 1686,
      "Ġnatural": 1687,
      "Ġcomput": 1688,
      "ething": 1689,
      "eg": 1690,
      "ĠBrit": 1691,
      "atory": 1692,
      "Ġcome": 1693,
      "ĠUS": 1694,
      "Ġproblems": 1695,
      "Ġrecord": 1696,
      "ĠBy": 1697,
      "Ġsing": 1698,
      "ĠEurope": 1699,
      "Ġsuggest": 1700,
      "ured": 1701,
      "be": 1702,
      "Ġappear": 1703,
      "ately": 1704,
      "Ġbenef": 1705,
      "unt": 1706,
      "Ġtemper": 1707,
      "Ġshort": 1708,
      "of": 1709,
      "ope": 1710,
      "ler": 1711,
      "pect": 1712,
      "ĠJohn": 1713,
      "ead": 1714,
      "ogn": 1715,
      "Ġamount": 1716,
      "Ġauthor": 1717,
      "Ġlet": 1718,
      "ude": 1719,
      "Ġabove": 1720,
      "aps": 1721,
      "obal": 1722,
      "Ġclear": 1723,
      "Ġdescrib": 1724,
      "work": 1725,
      "Ġproblem": 1726,
      "let": 1727,
      "ĠThat": 1728,
      "Ġprevent": 1729,
      "ored": 1730,
      "Ġplant": 1731,
      "aim": 1732,
      "ression": 1733,
      "Ġage": 1734,
      "ĠWar": 1735,
      "alf": 1736,
      "Ġmillion": 1737,
      "Ġrele": 1738,
      "idd": 1739,
      "Ġsomething": 1740,
      "aster": 1741,
      "ĠAfric": 1742,
      "Ġflow": 1743,
      "Ġconn": 1744,
      "Ġfunction": 1745,
      "Ġspace": 1746,
      "Ġassoci": 1747,
      "Ġbus": 1748,
      "elf": 1749,
      "50": 1750,
      "ledge": 1751,
      "Ġcomb": 1752,
      "Ġ0": 1753,
      "ances": 1754,
      "Ġlevels": 1755,
      "Ġdeath": 1756,
      "Ġcancer": 1757,
      "ones": 1758,
      "ication": 1759,
      "vious": 1760,
      "ators": 1761,
      "Ġmult": 1762,
      "orts": 1763,
      "Ġleft": 1764,
      "orld": 1765,
      "Ġexist": 1766,
      "rate": 1767,
      "ĠSc": 1768,
      "ĠMar": 1769,
      "Ġsw": 1770,
      "aper": 1771,
      "ng": 1772,
      "Ġcirc": 1773,
      "uture": 1774,
      "ĠGen": 1775,
      "Ġhard": 1776,
      "ides": 1777,
      "Ġpopulation": 1778,
      "Ġfil": 1779,
      "Ġinvest": 1780,
      "11": 1781,
      "Ġbecame": 1782,
      "ĠDr": 1783,
      "pr": 1784,
      "ued": 1785,
      "Ġlo": 1786,
      "Ġtechnology": 1787,
      "Ġill": 1788,
      "Ġheart": 1789,
      "iam": 1790,
      "Ġdra": 1791,
      "ales": 1792,
      "Ġdays": 1793,
      "Ġpast": 1794,
      "Ġalong": 1795,
      "Ġnext": 1796,
      "isc": 1797,
      "Ġspecial": 1798,
      "Ġcrit": 1799,
      "Ġhowever": 1800,
      "Ġlikely": 1801,
      "200": 1802,
      "Ġresearc": 1803,
      "ocus": 1804,
      "min": 1805,
      "Ġcommunity": 1806,
      "ode": 1807,
      "Ġ197": 1808,
      "Ġestab": 1809,
      "mber": 1810,
      "Ġvol": 1811,
      "Ġparent": 1812,
      "Ġapplic": 1813,
      "Ġcourse": 1814,
      "Ġgre": 1815,
      "oph": 1816,
      "Ġindust": 1817,
      "Ġ14": 1818,
      "app": 1819,
      "ray": 1820,
      "Ġleast": 1821,
      "Ġur": 1822,
      "--": 1823,
      "icult": 1824,
      "Ġer": 1825,
      "Ġmot": 1826,
      "ĠJew": 1827,
      "sw": 1828,
      "Ġbegin": 1829,
      "Ġlearning": 1830,
      "Ġeducation": 1831,
      "rim": 1832,
      "Ġdem": 1833,
      "ument": 1834,
      "itor": 1835,
      "Ġrepresent": 1836,
      "Ġcases": 1837,
      "ĠNorth": 1838,
      "ĠAb": 1839,
      "Ġoffic": 1840,
      "ences": 1841,
      "ortun": 1842,
      "Ġside": 1843,
      "rug": 1844,
      "Ġconditions": 1845,
      "Ġdr": 1846,
      "ĠSoc": 1847,
      "right": 1848,
      "erence": 1849,
      "Ġtype": 1850,
      "ĠMay": 1851,
      "Ġnever": 1852,
      "oman": 1853,
      "Ġusually": 1854,
      "Ġtru": 1855,
      "Ġchem": 1856,
      "ĠGo": 1857,
      "Ġwords": 1858,
      "Ġchanges": 1859,
      "Ġsystems": 1860,
      "Ġtoday": 1861,
      "ung": 1862,
      "Ġdue": 1863,
      "ember": 1864,
      "ivil": 1865,
      "ending": 1866,
      "Ġnecess": 1867,
      "\".": 1868,
      "nal": 1869,
      "Ġcharacter": 1870,
      "Ġdam": 1871,
      "Ġgeneral": 1872,
      "Ġtoget": 1873,
      "Ġtogether": 1874,
      "ormal": 1875,
      "ours": 1876,
      "ruction": 1877,
      "Ġdri": 1878,
      "Ġvir": 1879,
      "selves": 1880,
      "Ġcountries": 1881,
      "oint": 1882,
      "Ġmag": 1883,
      "ĠBl": 1884,
      "aining": 1885,
      "most": 1886,
      "Ġask": 1887,
      "ape": 1888,
      "Ġrights": 1889,
      "Ġpolitical": 1890,
      "Ġmaking": 1891,
      "15": 1892,
      "sh": 1893,
      "enn": 1894,
      "ĠYork": 1895,
      "Ġline": 1896,
      "Ġteac": 1897,
      "Ġmembers": 1898,
      "ox": 1899,
      "lement": 1900,
      "Ġcho": 1901,
      "cle": 1902,
      "yd": 1903,
      "ĠGe": 1904,
      "Ġfeel": 1905,
      "Ġsignificant": 1906,
      "ĠCar": 1907,
      "ively": 1908,
      "Ġterm": 1909,
      "Ġsite": 1910,
      "ands": 1911,
      "Ġspecific": 1912,
      "ĠGerm": 1913,
      "duct": 1914,
      "Ġlanguage": 1915,
      "for": 1916,
      "val": 1917,
      "ĠEarth": 1918,
      "Ġaway": 1919,
      "ecially": 1920,
      "ilities": 1921,
      "Ġsurface": 1922,
      "anc": 1923,
      "ribut": 1924,
      "Ġgive": 1925,
      "30": 1926,
      "Ġfuture": 1927,
      "Ġgr": 1928,
      "ird": 1929,
      "Ġdiscuss": 1930,
      "Ġmov": 1931,
      "Ġkind": 1932,
      "ipp": 1933,
      "Ġhaving": 1934,
      "Ġsimilar": 1935,
      "Ġcreat": 1936,
      "asing": 1937,
      "Ġenc": 1938,
      "ĠDep": 1939,
      "Ġimpact": 1940,
      "eb": 1941,
      "Ġrespons": 1942,
      "ott": 1943,
      "Ġcomplete": 1944,
      "ps": 1945,
      "Ġresults": 1946,
      "Ġz": 1947,
      "Ġcolle": 1948,
      "ĠAm": 1949,
      "Ġlearn": 1950,
      "ĠRep": 1951,
      "Ġprim": 1952,
      "Ġenough": 1953,
      "Ġsum": 1954,
      "ĠAfter": 1955,
      "ane": 1956,
      "atch": 1957,
      "Ġ30": 1958,
      "Ġprofess": 1959,
      "Ġbehav": 1960,
      "omm": 1961,
      "oney": 1962,
      "ges": 1963,
      "eter": 1964,
      "especially": 1965,
      "sc": 1966,
      "Ġincrease": 1967,
      "ilt": 1968,
      "NA": 1969,
      "edi": 1970,
      "Ġcity": 1971,
      "Ġhigher": 1972,
      "Ġfund": 1973,
      "istic": 1974,
      "Ġfocus": 1975,
      "ĠAct": 1976,
      "ĠWorld": 1977,
      "__": 1978,
      "Ġalways": 1979,
      "Ġplac": 1980,
      "Ġey": 1981,
      "Ġsuff": 1982,
      "by": 1983,
      "Ġnational": 1984,
      "ĠCal": 1985,
      "Ġdifficult": 1986,
      "Ġstudies": 1987,
      "ĠResear": 1988,
      "ĠIm": 1989,
      "Ġlower": 1990,
      "Ġstrong": 1991,
      "Ġprob": 1992,
      "af": 1993,
      "ency": 1994,
      "aring": 1995,
      "Ġvarious": 1996,
      "Ġ196": 1997,
      "Ġnet": 1998,
      "ĠAmerica": 1999,
      "Ġacross": 2000,
      "ires": 2001,
      "omes": 2002,
      "Ġreturn": 2003,
      "Ġblack": 2004,
      "Ġsubject": 2005,
      "Ġground": 2006,
      "Ġ11": 2007,
      "Ġfull": 2008,
      "Ġla": 2009,
      "Ġpatients": 2010,
      "ches": 2011,
      "wh": 2012,
      "ison": 2013,
      "artment": 2014,
      "sych": 2015,
      "Ġknowledge": 2016,
      "Ġfurther": 2017,
      "put": 2018,
      "Ġ--": 2019,
      "ĠAss": 2020,
      "Ġeffects": 2021,
      "Ġwhether": 2022,
      "Ġgroups": 2023,
      "iting": 2024,
      "Ġscience": 2025,
      "Ġplants": 2026,
      "Ġfive": 2027,
      "Ġrather": 2028,
      "Ġinflu": 2029,
      "amin": 2030,
      "ream": 2031,
      "Ġword": 2032,
      "Ġworking": 2033,
      "Ġgoing": 2034,
      "Ġloss": 2035,
      "rams": 2036,
      "ique": 2037,
      "iation": 2038,
      "Ġclose": 2039,
      "rated": 2040,
      "oot": 2041,
      "ĠSouth": 2042,
      "ready": 2043,
      "Ġprotect": 2044,
      "Ġseen": 2045,
      "Ġsingle": 2046,
      "Ġtry": 2047,
      "ederal": 2048,
      "agement": 2049,
      "aves": 2050,
      "Ġcreate": 2051,
      "thing": 2052,
      "Ġdeveloped": 2053,
      "yn": 2054,
      "het": 2055,
      "Ġquestion": 2056,
      "Ġlive": 2057,
      "Ġupon": 2058,
      "Ġespecially": 2059,
      "Ġphot": 2060,
      "Ġstep": 2061,
      "ĠHis": 2062,
      "ibility": 2063,
      "ule": 2064,
      "Ġrelations": 2065,
      "Ġtaken": 2066,
      "ublic": 2067,
      "Ġcame": 2068,
      "Ġevidence": 2069,
      "ĠHist": 2070,
      "ee": 2071,
      "ĠCanad": 2072,
      "Ġeither": 2073,
      "Ġyoung": 2074,
      "Ġmodel": 2075,
      "Ġresearchers": 2076,
      "ĠHealth": 2077,
      "Ġconsider": 2078,
      "Ġwhy": 2079,
      "ER": 2080,
      "urch": 2081,
      "amm": 2082,
      "Ġitself": 2083,
      "ĠState": 2084,
      "side": 2085,
      "Ġevent": 2086,
      "Ġneeds": 2087,
      "Ġann": 2088,
      "Ġreason": 2089,
      "Ġsent": 2090,
      "Ġoil": 2091,
      "port": 2092,
      "Ġindic": 2093,
      "ush": 2094,
      "Ġsun": 2095,
      "Ġrequire": 2096,
      "ctor": 2097,
      "ĠNe": 2098,
      "Ġpolic": 2099,
      "Ġri": 2100,
      "Ġess": 2101,
      "Ġbrain": 2102,
      "Ġdest": 2103,
      "ĠStud": 2104,
      "Ġpressure": 2105,
      "Ġfail": 2106,
      "Ġconsum": 2107,
      "Ġresources": 2108,
      "Ġcollect": 2109,
      "overed": 2110,
      "ysis": 2111,
      "ann": 2112,
      "Ġ13": 2113,
      "Ġfield": 2114,
      "roll": 2115,
      "ĠNo": 2116,
      "ront": 2117,
      "etimes": 2118,
      "ĠWhile": 2119,
      "aching": 2120,
      "Ġways": 2121,
      "Ġtool": 2122,
      "Ġfall": 2123,
      "Ġonce": 2124,
      ".)": 2125,
      "Ġrelig": 2126,
      "Ġalready": 2127,
      "Ġmind": 2128,
      "rown": 2129,
      "Ġdoc": 2130,
      "Ġtoward": 2131,
      "Ġfish": 2132,
      "Ġbelow": 2133,
      "Ġkill": 2134,
      "ules": 2135,
      "Ġmedical": 2136,
      "ster": 2137,
      "Ġobserv": 2138,
      "rel": 2139,
      "Ġstates": 2140,
      "ournal": 2141,
      "Ġcy": 2142,
      "Ġwr": 2143,
      "Ġhouse": 2144,
      "Ġclimate": 2145,
      "AS": 2146,
      "Ġneg": 2147,
      "Ġaccording": 2148,
      "Ġpay": 2149,
      "Ġred": 2150,
      "ptoms": 2151,
      "eds": 2152,
      "Ġrepl": 2153,
      "Ġreally": 2154,
      "Ġconcer": 2155,
      "Ġskin": 2156,
      "son": 2157,
      "verage": 2158,
      "Ġpred": 2159,
      "org": 2160,
      "Ġthemselves": 2161,
      "Ġmass": 2162,
      "ĠFl": 2163,
      "ĠShe": 2164,
      "oll": 2165,
      "Ġemploy": 2166,
      "Ġpublished": 2167,
      "Ġgrowth": 2168,
      "Ġexperience": 2169,
      "uel": 2170,
      "Ġmic": 2171,
      "Ġtext": 2172,
      "hib": 2173,
      "Ġrole": 2174,
      "13": 2175,
      "Ġanimals": 2176,
      "reg": 2177,
      "Ġhold": 2178,
      "Ġdone": 2179,
      "Ġdrug": 2180,
      "Ġstory": 2181,
      "Ġhalf": 2182,
      "Ġmeet": 2183,
      "ĠX": 2184,
      "rict": 2185,
      "Ġthought": 2186,
      "Ġstat": 2187,
      "Ġwhole": 2188,
      "aut": 2189,
      "augh": 2190,
      "Ġhistor": 2191,
      "apt": 2192,
      "Ġ2012": 2193,
      "Ġopt": 2194,
      "Ġabs": 2195,
      "fer": 2196,
      "itary": 2197,
      "Ġparticip": 2198,
      "esc": 2199,
      "ites": 2200,
      "ober": 2201,
      "Ġlay": 2202,
      "Ġliving": 2203,
      "osis": 2204,
      "iol": 2205,
      "Ġdia": 2206,
      "Ġsex": 2207,
      "ĠInstit": 2208,
      "Ġinit": 2209,
      "Ġclaim": 2210,
      "Ġactivity": 2211,
      "Ġcannot": 2212,
      "//": 2213,
      "ications": 2214,
      "atures": 2215,
      "Ġsource": 2216,
      "epend": 2217,
      "Ġkey": 2218,
      "ints": 2219,
      "Ġrange": 2220,
      "Ġteam": 2221,
      "Ġsens": 2222,
      "Ġaccount": 2223,
      "ĠPe": 2224,
      "Ġdeg": 2225,
      "Ġtradition": 2226,
      "itude": 2227,
      "chie": 2228,
      "ĠEnglish": 2229,
      "ification": 2230,
      "Ġaddress": 2231,
      "Ġengine": 2232,
      "ĠAcc": 2233,
      "Ġrecogn": 2234,
      "Ġcop": 2235,
      "icient": 2236,
      "Ġglobal": 2237,
      "Ġchall": 2238,
      "ĠAust": 2239,
      "ĠPres": 2240,
      "Ġdi": 2241,
      "Ġbegan": 2242,
      "ĠCont": 2243,
      "ened": 2244,
      "Ġwind": 2245,
      "Ġwhite": 2246,
      "):": 2247,
      "ried": 2248,
      "Ġfamil": 2249,
      "Ã©": 2250,
      "Ġconsidered": 2251,
      "Ġtook": 2252,
      "Ġvalue": 2253,
      "ae": 2254,
      "Ġphysical": 2255,
      "icine": 2256,
      "Ġmodern": 2257,
      "Ġbig": 2258,
      "reme": 2259,
      "Ġworks": 2260,
      "iple": 2261,
      "Ġentire": 2262,
      "Ġcomplex": 2263,
      "alt": 2264,
      "17": 2265,
      "oura": 2266,
      "itted": 2267,
      "Ġbusiness": 2268,
      "Ġwide": 2269,
      "ĠII": 2270,
      "gest": 2271,
      "Ġprote": 2272,
      "://": 2273,
      "vere": 2274,
      "ĠCo": 2275,
      "Ġconcept": 2276,
      "Ġansw": 2277,
      "Ġfrequ": 2278,
      "Ġself": 2279,
      "Ġmakes": 2280,
      "Ġflu": 2281,
      "ibr": 2282,
      "Ġpotential": 2283,
      "my": 2284,
      "Ġregion": 2285,
      "Ġintrodu": 2286,
      "Ġcreated": 2287,
      "Ġprovides": 2288,
      "like": 2289,
      "ateg": 2290,
      "Ġarg": 2291,
      "ttp": 2292,
      "Ġactivities": 2293,
      "Ġneeded": 2294,
      "14": 2295,
      "ights": 2296,
      "Ġbuilding": 2297,
      "Ġnature": 2298,
      "Ġincreased": 2299,
      "Ġreact": 2300,
      "Ġtypes": 2301,
      "Ġscientists": 2302,
      "Ġdetail": 2303,
      "Ġdom": 2304,
      "Ġsepar": 2305,
      "pos": 2306,
      "apan": 2307,
      "lying": 2308,
      "ĠSy": 2309,
      "ĠBritish": 2310,
      "Ġtot": 2311,
      "Ġparts": 2312,
      "Ġactually": 2313,
      "ĠÂ": 2314,
      "Ġfig": 2315,
      "Ġcr": 2316,
      "ĠEm": 2317,
      "Th": 2318,
      "lo": 2319,
      "ulations": 2320,
      "Ġproducts": 2321,
      "Ġcomputer": 2322,
      "Ġmoney": 2323,
      "Ġtell": 2324,
      "ched": 2325,
      "irm": 2326,
      "ĠMany": 2327,
      "ables": 2328,
      "Ġrate": 2329,
      "Ġearth": 2330,
      "Ġquestions": 2331,
      "Ġalmost": 2332,
      "Ġrelated": 2333,
      "Ġaffect": 2334,
      "Ġ2010": 2335,
      "bon": 2336,
      "ĠTr": 2337,
      "Ġattack": 2338,
      "Ġrequired": 2339,
      "Ġge": 2340,
      "Ġeconomic": 2341,
      "Ġrecent": 2342,
      "Ġweek": 2343,
      "Ġrelative": 2344,
      "Ġimprove": 2345,
      "ĠMore": 2346,
      "Ġarticle": 2347,
      "fact": 2348,
      "go": 2349,
      "Ġstudent": 2350,
      "ĠResearch": 2351,
      "eed": 2352,
      "urity": 2353,
      "ĠSec": 2354,
      "ounds": 2355,
      "Ġproduction": 2356,
      "Ġsize": 2357,
      "Ġsix": 2358,
      "utes": 2359,
      "uation": 2360,
      "ister": 2361,
      "Ġissues": 2362,
      "Ġpriv": 2363,
      "Ġmor": 2364,
      "ĠMin": 2365,
      "Ġidea": 2366,
      "Ġvers": 2367,
      "Ġwin": 2368,
      "Ġtemperature": 2369,
      "Ġyet": 2370,
      "Ġ100": 2371,
      "aged": 2372,
      "Ġsymptoms": 2373,
      "ĠMost": 2374,
      "ĠJapan": 2375,
      "Ġ50": 2376,
      "Ġsuper": 2377,
      "ney": 2378,
      "attle": 2379,
      "rie": 2380,
      "Ġcle": 2381,
      "ĠPart": 2382,
      "rought": 2383,
      "Ġchemical": 2384,
      "ivity": 2385,
      "Ġenvironmental": 2386,
      "Ġcamp": 2387,
      "ask": 2388,
      "iddle": 2389,
      "Ġcut": 2390,
      "ĠGu": 2391,
      "Ġregard": 2392,
      "ips": 2393,
      "Ġport": 2394,
      "acy": 2395,
      "Ġver": 2396,
      "estern": 2397,
      "sequ": 2398,
      "ume": 2399,
      "Ġgas": 2400,
      "chan": 2401,
      "uck": 2402,
      "Ġsense": 2403,
      "Ġpaper": 2404,
      "ival": 2405,
      "Ġshows": 2406,
      "hing": 2407,
      "erve": 2408,
      "ĠDo": 2409,
      "rad": 2410,
      "ervation": 2411,
      "ĠOther": 2412,
      "Ġprovided": 2413,
      "Ġdig": 2414,
      "Ġachie": 2415,
      "cil": 2416,
      "ery": 2417,
      "Ġsure": 2418,
      "Ġparents": 2419,
      "rect": 2420,
      "abit": 2421,
      "Ġreduce": 2422,
      "Ġmonths": 2423,
      "ington": 2424,
      "ety": 2425,
      "ump": 2426,
      "Ġinteract": 2427,
      "Ġpage": 2428,
      "empt": 2429,
      "Ġ25": 2430,
      "Ġsoft": 2431,
      "ply": 2432,
      "iment": 2433,
      "Ġsurv": 2434,
      "ging": 2435,
      "ript": 2436,
      "Ġadult": 2437,
      "Ġliter": 2438,
      "umb": 2439,
      "ĠSu": 2440,
      "ops": 2441,
      "order": 2442,
      "16": 2443,
      "oon": 2444,
      "ections": 2445,
      "Ġaccept": 2446,
      "Ġassociated": 2447,
      "Ġtrue": 2448,
      "ĠDepartment": 2449,
      "Ġmaterials": 2450,
      "Ġdeb": 2451,
      "Ġbar": 2452,
      "lex": 2453,
      "Ġsubst": 2454,
      "atives": 2455,
      "amed": 2456,
      "pid": 2457,
      "Ġmaint": 2458,
      "Ġpractice": 2459,
      "Ġrelationship": 2460,
      "Ġaction": 2461,
      "urs": 2462,
      "Ġprograms": 2463,
      "ĠCons": 2464,
      "minist": 2465,
      "ES": 2466,
      "adem": 2467,
      "ĠAlthough": 2468,
      "Ġschools": 2469,
      "Ġstandard": 2470,
      "Ġlink": 2471,
      "Ġnecessary": 2472,
      "Ġrecomm": 2473,
      "iction": 2474,
      "Ġbuilt": 2475,
      "Ġlot": 2476,
      "ĠCenter": 2477,
      "Ġever": 2478,
      "usion": 2479,
      "ai": 2480,
      "Ġconduct": 2481,
      "Ġcoll": 2482,
      "Ġstructure": 2483,
      "inary": 2484,
      "Ġcondition": 2485,
      "Ġopportun": 2486,
      "Ġfri": 2487,
      "ĠPer": 2488,
      "Ġability": 2489,
      "Ġrev": 2490,
      "Ġprevious": 2491,
      "Ġemer": 2492,
      "olic": 2493,
      "ĠMan": 2494,
      "ĠScience": 2495,
      "Ġmeasure": 2496,
      "Ġgreen": 2497,
      "Ġservice": 2498,
      "rial": 2499,
      "ĠJan": 2500,
      "Ġarch": 2501,
      "ius": 2502,
      "Ġfat": 2503,
      "Ġsett": 2504,
      "ĠSchool": 2505,
      "Ġheav": 2506,
      "Ġtherap": 2507,
      "Ġnormal": 2508,
      "Ġens": 2509,
      "Ġproduce": 2510,
      "mb": 2511,
      "Ġwild": 2512,
      "Ġsimple": 2513,
      "aff": 2514,
      "leep": 2515,
      "raft": 2516,
      "Ġforce": 2517,
      "ĠEd": 2518,
      "ĠJu": 2519,
      "Ġthroughout": 2520,
      "Ġpattern": 2521,
      "utions": 2522,
      "Ġ=": 2523,
      "vey": 2524,
      "ĠDav": 2525,
      "rench": 2526,
      "Ġrespect": 2527,
      "Ġcit": 2528,
      "Ġquality": 2529,
      "Ġcaused": 2530,
      "Ġcoun": 2531,
      "Ġtax": 2532,
      "Ġce": 2533,
      "Ġcivil": 2534,
      "Ġinternational": 2535,
      "Ġlonger": 2536,
      "Ġ2011": 2537,
      "ĠSee": 2538,
      "ĠKing": 2539,
      "ĠApp": 2540,
      "Ġorigin": 2541,
      "atter": 2542,
      "Ġhours": 2543,
      "ene": 2544,
      "Ġterms": 2545,
      "ensive": 2546,
      "Ġtaking": 2547,
      "ternal": 2548,
      "Ġcolor": 2549,
      "ronic": 2550,
      "Ġunderstanding": 2551,
      "Ġlab": 2552,
      "Ġavoid": 2553,
      "Ġmarket": 2554,
      "Ġgreater": 2555,
      "Ġdiv": 2556,
      "Ġled": 2557,
      "Ġoriginal": 2558,
      "Ġquick": 2559,
      "Ġsam": 2560,
      "ID": 2561,
      "Ġheat": 2562,
      "fully": 2563,
      "izing": 2564,
      "Ġreported": 2565,
      "ĠInt": 2566,
      "ĠQu": 2567,
      "Ġdiet": 2568,
      "ma": 2569,
      "ĠMarch": 2570,
      "Ġpopular": 2571,
      "pro": 2572,
      "ĠAccording": 2573,
      "Ġ/": 2574,
      "Ġmatter": 2575,
      "erous": 2576,
      "arily": 2577,
      "Ġsqu": 2578,
      "new": 2579,
      "ze": 2580,
      "ĠCor": 2581,
      "stitution": 2582,
      "Ġthreat": 2583,
      "Ġtravel": 2584,
      "Ġnut": 2585,
      "ĠRet": 2586,
      "ĠInstitute": 2587,
      "Ġtotal": 2588,
      "Ġbring": 2589,
      "Ġstop": 2590,
      "Ġdesigned": 2591,
      "ief": 2592,
      "IS": 2593,
      "Ġstri": 2594,
      "Ġcomes": 2595,
      "imately": 2596,
      "lt": 2597,
      "Ġut": 2598,
      "Ġsometimes": 2599,
      "ropri": 2600,
      "ĠCalif": 2601,
      "hood": 2602,
      "Ġpath": 2603,
      "ĠFrom": 2604,
      "Ġservices": 2605,
      "ift": 2606,
      "ĠInternational": 2607,
      "ening": 2608,
      "ades": 2609,
      "ressed": 2610,
      "aries": 2611,
      "ĠHar": 2612,
      "acc": 2613,
      "Ġtown": 2614,
      "ĠComp": 2615,
      "Ġissue": 2616,
      "Ġanalysis": 2617,
      "ĠMe": 2618,
      "Ġmechan": 2619,
      "ĠPre": 2620,
      "Ġdeep": 2621,
      "ĠWill": 2622,
      "Ġweight": 2623,
      "ows": 2624,
      "Ġforms": 2625,
      "ached": 2626,
      "yl": 2627,
      "Ġaverage": 2628,
      "cean": 2629,
      "Ġviol": 2630,
      "Ġshown": 2631,
      "rand": 2632,
      "ricult": 2633,
      "Ġtraining": 2634,
      "Ġinj": 2635,
      "Ġwritten": 2636,
      "'re": 2637,
      "Ġfarm": 2638,
      "Ġincreasing": 2639,
      "Ġir": 2640,
      "Ġmess": 2641,
      "Ġsat": 2642,
      "asc": 2643,
      "ĠPr": 2644,
      "Ġeffective": 2645,
      "lim": 2646,
      "nces": 2647,
      "duc": 2648,
      "ĠFran": 2649,
      "based": 2650,
      "dom": 2651,
      "Ġjob": 2652,
      "Ġsimply": 2653,
      "Ġtheory": 2654,
      "Ġ24": 2655,
      "Ġ2008": 2656,
      "Ġapproach": 2657,
      "ĠCount": 2658,
      "lies": 2659,
      "Ġcontact": 2660,
      "Ġprobably": 2661,
      "Ġpict": 2662,
      "ĠRec": 2663,
      "Ġlate": 2664,
      "Ġvit": 2665,
      "Ġbehavior": 2666,
      "uary": 2667,
      "gram": 2668,
      "Ġinvolved": 2669,
      "igation": 2670,
      "Ġthing": 2671,
      "ĠPress": 2672,
      "Ġexerc": 2673,
      "Ġmeaning": 2674,
      "ino": 2675,
      "ising": 2676,
      "Ġbur": 2677,
      "Ġevents": 2678,
      "Ġago": 2679,
      "Ġhttp": 2680,
      "amb": 2681,
      "Ġdemon": 2682,
      "Ġcontain": 2683,
      "Ġconc": 2684,
      "Ġofficial": 2685,
      "ON": 2686,
      "Ġdiagn": 2687,
      "Ġpsych": 2688,
      "Ġ194": 2689,
      "Ġslow": 2690,
      "Ġsources": 2691,
      "Ġsea": 2692,
      "ĠInf": 2693,
      "Ġfactors": 2694,
      "ores": 2695,
      "ese": 2696,
      "Ġpersonal": 2697,
      "Ġvisit": 2698,
      "ror": 2699,
      "icles": 2700,
      "rael": 2701,
      "Ġste": 2702,
      "aging": 2703,
      "Ġfa": 2704,
      "ĠWash": 2705,
      "na": 2706,
      "Ġcontent": 2707,
      "Ġmusic": 2708,
      "ĠHere": 2709,
      "ribution": 2710,
      "Ġindividuals": 2711,
      "Ġparticularly": 2712,
      "Ġposition": 2713,
      "ĠAc": 2714,
      "Ġemb": 2715,
      "Ġmedia": 2716,
      "ornia": 2717,
      "haps": 2718,
      "ĠWest": 2719,
      "Ġ2009": 2720,
      "Ġbirth": 2721,
      "uk": 2722,
      "eration": 2723,
      "Ġsoil": 2724,
      "ĠMus": 2725,
      "Ġrefer": 2726,
      "vention": 2727,
      "Ġmanagement": 2728,
      "Ġattempt": 2729,
      "Ġgenerally": 2730,
      "Ġuses": 2731,
      "Ġdeveloping": 2732,
      "Ġexperien": 2733,
      "Ġface": 2734,
      "ĠAnt": 2735,
      "ĠJune": 2736,
      "Ġnumbers": 2737,
      "AR": 2738,
      "Ġspread": 2739,
      "ĠPar": 2740,
      "Ġseries": 2741,
      "In": 2742,
      "Ġx": 2743,
      "Ġheld": 2744,
      "aving": 2745,
      "Ġtar": 2746,
      "ĠChar": 2747,
      "ender": 2748,
      "Ġdemonst": 2749,
      "ners": 2750,
      "inks": 2751,
      "Ġcompl": 2752,
      "Ġjo": 2753,
      "lands": 2754,
      "AT": 2755,
      "Ġ,": 2756,
      "Ġfire": 2757,
      "Ġthous": 2758,
      "istance": 2759,
      "ĠNow": 2760,
      "Ġoutside": 2761,
      "Ġindepend": 2762,
      "ĠIndian": 2763,
      "pril": 2764,
      "ength": 2765,
      "olec": 2766,
      "onse": 2767,
      "Ġthus": 2768,
      "Ġbasic": 2769,
      "hold": 2770,
      "aters": 2771,
      "ira": 2772,
      "Ġple": 2773,
      "Ġmiles": 2774,
      "ĠAfrican": 2775,
      "ĠPresident": 2776,
      "Ġfederal": 2777,
      "Ġcauses": 2778,
      "Ġnuc": 2779,
      "Ġwhose": 2780,
      "ĠHer": 2781,
      "ĠCalifornia": 2782,
      "Ġtalk": 2783,
      "Ġlives": 2784,
      "hern": 2785,
      "ĠDuring": 2786,
      "Ġlack": 2787,
      "Ġspir": 2788,
      "Ġ40": 2789,
      "Ġnetwork": 2790,
      "ĠAustral": 2791,
      "Ġdou": 2792,
      "ĠNot": 2793,
      "Ġbelieve": 2794,
      "Ġetc": 2795,
      "ĠChild": 2796,
      "Ġscientific": 2797,
      "anced": 2798,
      "undred": 2799,
      "ĠSm": 2800,
      "Ġjud": 2801,
      "Ġassess": 2802,
      "25": 2803,
      "Ġproduced": 2804,
      "Ġreview": 2805,
      "ĠFrench": 2806,
      "Ġincludes": 2807,
      "Ġcapt": 2808,
      "Ġdocument": 2809,
      "Ġap": 2810,
      "Ġfem": 2811,
      "ĠBo": 2812,
      "ĠFirst": 2813,
      "Ġvide": 2814,
      "Ġfront": 2815,
      "Ġwent": 2816,
      "eding": 2817,
      "Ġinteg": 2818,
      "Ġperm": 2819,
      "Ġmilitary": 2820,
      "Ġanimal": 2821,
      "Ġmovement": 2822,
      "Ġestablished": 2823,
      "Ġlabor": 2824,
      "Ġ2007": 2825,
      "know": 2826,
      "Ġremov": 2827,
      "Ġonline": 2828,
      "Ġculture": 2829,
      "IN": 2830,
      "We": 2831,
      "Ġalthough": 2832,
      "Ġvariety": 2833,
      "useum": 2834,
      "cies": 2835,
      "erg": 2836,
      "Ġnorth": 2837,
      "Ġmother": 2838,
      "Ġthird": 2839,
      "Ġlog": 2840,
      "Ġcontinue": 2841,
      "ctions": 2842,
      "aches": 2843,
      "rew": 2844,
      "ĠAug": 2845,
      "ĠRiver": 2846,
      "Ġcentral": 2847,
      "Ġmount": 2848,
      "mosp": 2849,
      "ternet": 2850,
      "Ġreading": 2851,
      "Ġnation": 2852,
      "Ġhealthy": 2853,
      "ĠIsrael": 2854,
      "ns": 2855,
      "ĠWashington": 2856,
      "overy": 2857,
      "Ġcompany": 2858,
      "aling": 2859,
      "ĠTw": 2860,
      "Ġcourt": 2861,
      "rast": 2862,
      "Ġexc": 2863,
      "Ġinstead": 2864,
      "Ġmethods": 2865,
      "ille": 2866,
      "imum": 2867,
      "ĠEduc": 2868,
      "orthern": 2869,
      "Ġextreme": 2870,
      "Ġbreak": 2871,
      "Ġindustry": 2872,
      "ided": 2873,
      "ĠChe": 2874,
      "oly": 2875,
      "isms": 2876,
      "Ġking": 2877,
      "Ġfeet": 2878,
      "Ġserious": 2879,
      "AN": 2880,
      "che": 2881,
      "thern": 2882,
      "Ġincluded": 2883,
      "Ġinterp": 2884,
      "âĢ¦": 2885,
      "Ġconcent": 2886,
      "Ġforest": 2887,
      "ulated": 2888,
      "Ġnight": 2889,
      "ecause": 2890,
      "ĠGl": 2891,
      "reng": 2892,
      "Ġcarbon": 2893,
      "80": 2894,
      "Ġbr": 2895,
      "uth": 2896,
      "ĠJewish": 2897,
      "Ġcolon": 2898,
      "Ġpoll": 2899,
      "Ġsafe": 2900,
      "Ġdamage": 2901,
      "ana": 2902,
      "Ġimage": 2903,
      "Ġcommunities": 2904,
      "ĠCong": 2905,
      "Ġcompan": 2906,
      "21": 2907,
      "ĠAg": 2908,
      "orders": 2909,
      "Ġsociety": 2910,
      "Ġprec": 2911,
      "ĠHistory": 2912,
      "Ġox": 2913,
      "Ġquite": 2914,
      "Ġpoor": 2915,
      "Ġwriting": 2916,
      "Ġteachers": 2917,
      "ming": 2918,
      "ĠMy": 2919,
      "ĠGovern": 2920,
      "Ġlove": 2921,
      "ulate": 2922,
      "ĠVal": 2923,
      "bor": 2924,
      "ĠKe": 2925,
      "Ġtherefore": 2926,
      "Ġcat": 2927,
      "see": 2928,
      "Ġskills": 2929,
      "www": 2930,
      "ĠCanada": 2931,
      "uman": 2932,
      "ĠSept": 2933,
      "uge": 2934,
      "ĠBar": 2935,
      "Ġshare": 2936,
      "Ġdefin": 2937,
      "Ġmagn": 2938,
      "Ġful": 2939,
      "ĠOf": 2940,
      "ĠUs": 2941,
      "Ġmach": 2942,
      "light": 2943,
      "abet": 2944,
      "Ġvari": 2945,
      "Ġcitiz": 2946,
      "Ġaltern": 2947,
      "istics": 2948,
      "Ġsust": 2949,
      "Ġadded": 2950,
      "Ġimmedi": 2951,
      "edia": 2952,
      "Ġsafety": 2953,
      "Ġbeginning": 2954,
      "Ġsou": 2955,
      "Ġec": 2956,
      "aily": 2957,
      "ography": 2958,
      "where": 2959,
      "ĠChina": 2960,
      ");": 2961,
      "ĠApril": 2962,
      "Ġworkers": 2963,
      "Ġattention": 2964,
      "Ġleaders": 2965,
      "ĠIS": 2966,
      "Ġbooks": 2967,
      "Ġdraw": 2968,
      "It": 2969,
      "cell": 2970,
      "Ġhundred": 2971,
      "ama": 2972,
      "ĠMc": 2973,
      "issions": 2974,
      "Ġelectric": 2975,
      "Ġtakes": 2976,
      "Ġconsist": 2977,
      "Ġseems": 2978,
      "ĠJuly": 2979,
      "pper": 2980,
      "ĠEuropean": 2981,
      "Ġfru": 2982,
      "Ġhost": 2983,
      "ads": 2984,
      "Ġestim": 2985,
      "Ġsus": 2986,
      "Ġwebs": 2987,
      "isions": 2988,
      "Ġcompet": 2989,
      "gency": 2990,
      "Ġnearly": 2991,
      "ancy": 2992,
      "osure": 2993,
      "Ġregular": 2994,
      "wise": 2995,
      "Ġreceived": 2996,
      "Ġclean": 2997,
      "ĠTra": 2998,
      "ĠIndia": 2999,
      "Ġfamilies": 3000,
      "itation": 3001,
      "Ġbab": 3002,
      "Ġdescribed": 3003,
      "ĠGerman": 3004,
      "ĠOct": 3005,
      "Ġdoctor": 3006,
      "Ġactive": 3007,
      "ĠChristian": 3008,
      "lied": 3009,
      "Ġcross": 3010,
      "Ġselect": 3011,
      "Ġpositive": 3012,
      "ilos": 3013,
      "lam": 3014,
      "Ġwarm": 3015,
      "Ġimpl": 3016,
      "Ġreflect": 3017,
      "Ġpolicy": 3018,
      "Ġhyd": 3019,
      "elling": 3020,
      "Ġast": 3021,
      "icien": 3022,
      "Ġlarger": 3023,
      "rieved": 3024,
      "yond": 3025,
      "Ġsection": 3026,
      "ĠPol": 3027,
      "oes": 3028,
      "Ġlost": 3029,
      "unch": 3030,
      "199": 3031,
      "Ġgrowing": 3032,
      "Ġencoura": 3033,
      "ying": 3034,
      "ĠSch": 3035,
      "yle": 3036,
      "Ġappropri": 3037,
      "Ġinstit": 3038,
      "Ġcompared": 3039,
      "Ġhumans": 3040,
      "Ġadditional": 3041,
      "Ġcheck": 3042,
      "Ġbacter": 3043,
      "Ġprep": 3044,
      "Ġlaws": 3045,
      "life": 3046,
      "coh": 3047,
      "Ġfav": 3048,
      "ĠGree": 3049,
      "erson": 3050,
      "Ġdog": 3051,
      "ground": 3052,
      "Ġtree": 3053,
      "Ġfile": 3054,
      "ĠSince": 3055,
      "Ġimplement": 3056,
      "Ġmicro": 3057,
      "asons": 3058,
      "ĠRuss": 3059,
      "elt": 3060,
      "istry": 3061,
      "Ġdoing": 3062,
      "ovember": 3063,
      "Ġwall": 3064,
      "Ġstreng": 3065,
      "osition": 3066,
      "OR": 3067,
      "Ġhor": 3068,
      "Ġbehind": 3069,
      "Ġsouth": 3070,
      "Ġdoesn": 3071,
      "Ġeasy": 3072,
      "IC": 3073,
      "Ġmill": 3074,
      "icated": 3075,
      "Ġkids": 3076,
      "hel": 3077,
      "Ġcapital": 3078,
      "Ġdetermine": 3079,
      "Wh": 3080,
      "aul": 3081,
      "Ġcommand": 3082,
      "ĠVol": 3083,
      "Ġgetting": 3084,
      "Ġbroad": 3085,
      "Ġbenefits": 3086,
      "ufact": 3087,
      "Ġdiseases": 3088,
      "Ġtur": 3089,
      "Ġsleep": 3090,
      "ĠAssoci": 3091,
      "60": 3092,
      "ription": 3093,
      "Ġnews": 3094,
      "Ġgenetic": 3095,
      "Ġidentify": 3096,
      "Ġprimary": 3097,
      "ĠâĢ¢": 3098,
      "inical": 3099,
      "cember": 3100,
      "Ġ21": 3101,
      "ĠLaw": 3102,
      "Ġdirectly": 3103,
      "Ġeat": 3104,
      "ellow": 3105,
      "Ġdispl": 3106,
      "Ġideas": 3107,
      "ises": 3108,
      "ĠReg": 3109,
      "Ġapplication": 3110,
      "ĠInc": 3111,
      "Ġcontains": 3112,
      "Ġpack": 3113,
      "Ġresponse": 3114,
      "Ġsolar": 3115,
      "book": 3116,
      "Ġbrought": 3117,
      "Ġhabit": 3118,
      "term": 3119,
      "Ġhimself": 3120,
      "oor": 3121,
      "Ġvill": 3122,
      "ĠYour": 3123,
      "Ġemot": 3124,
      "Ġtarget": 3125,
      "pose": 3126,
      "ologies": 3127,
      "pe": 3128,
      "rates": 3129,
      "Ġmid": 3130,
      "Ġstress": 3131,
      "ĠEven": 3132,
      "Ġvirus": 3133,
      "Ġsoftware": 3134,
      "aid": 3135,
      "gar": 3136,
      "Ġappe": 3137,
      "hens": 3138,
      "Ġcover": 3139,
      "IT": 3140,
      "Ġ22": 3141,
      "Ġaud": 3142,
      "Ġpatient": 3143,
      "Ġlooking": 3144,
      "ĠJanuary": 3145,
      "rs": 3146,
      "Ġsevere": 3147,
      "Ġbul": 3148,
      "Ġreve": 3149,
      "Ġsummer": 3150,
      "Ġsound": 3151,
      "Ġlimited": 3152,
      "isl": 3153,
      "lection": 3154,
      "uls": 3155,
      "Ġfram": 3156,
      "Ġcontinued": 3157,
      "ham": 3158,
      "gypt": 3159,
      "Ġstarted": 3160,
      "\",": 3161,
      "Ġprotein": 3162,
      "used": 3163,
      "Ġatmosp": 3164,
      "Ġcred": 3165,
      "Ġgot": 3166,
      "ension": 3167,
      "Ġcust": 3168,
      "Ġshall": 3169,
      "ĠRetrieved": 3170,
      "ties": 3171,
      "Ġfuel": 3172,
      "ĠArt": 3173,
      "Ġsearch": 3174,
      "Ġsoon": 3175,
      "Ġord": 3176,
      "ondon": 3177,
      "Ġdecl": 3178,
      "Ġperformance": 3179,
      "ĠVir": 3180,
      "Ġtests": 3181,
      "room": 3182,
      "oses": 3183,
      "ĠUN": 3184,
      "bit": 3185,
      "Ġsil": 3186,
      "Ġep": 3187,
      "Ġdrink": 3188,
      "ĠSociety": 3189,
      "bo": 3190,
      "ĠBecause": 3191,
      "Ġwood": 3192,
      "Ġcompon": 3193,
      "Ġi": 3194,
      "rogen": 3195,
      "Ġrout": 3196,
      "Ġtraditional": 3197,
      "Ġprivate": 3198,
      "Ġtend": 3199,
      "Ġtiss": 3200,
      "Ġcard": 3201,
      "Ġtold": 3202,
      "illed": 3203,
      "Ġice": 3204,
      "ceed": 3205,
      "uries": 3206,
      "omet": 3207,
      "Ġseason": 3208,
      "den": 3209,
      "cohol": 3210,
      "Ġbank": 3211,
      "Ġmolec": 3212,
      "oles": 3213,
      "Ġproced": 3214,
      "Ġlegal": 3215,
      "ĠAugust": 3216,
      "Ġcarry": 3217,
      "ĠServ": 3218,
      "Ġancient": 3219,
      "estic": 3220,
      "Ġveget": 3221,
      "Ġeight": 3222,
      "ĠFeb": 3223,
      "Ġacid": 3224,
      "Ġbasis": 3225,
      "ĠDavid": 3226,
      "Ġtrade": 3227,
      "Ġremain": 3228,
      "Ġsal": 3229,
      "lier": 3230,
      "Ġtransport": 3231,
      "Ġreligious": 3232,
      "Ġpoints": 3233,
      "Ġegg": 3234,
      "Ġcorrect": 3235,
      "Ġden": 3236,
      "ems": 3237,
      "ĠEgypt": 3238,
      "Ġadminist": 3239,
      "ĠSeptember": 3240,
      "Ġbit": 3241,
      "Ġones": 3242,
      "osing": 3243,
      "Ġlargest": 3244,
      "uous": 3245,
      "Ġbal": 3246,
      "arr": 3247,
      "iles": 3248,
      "ĠWater": 3249,
      "22": 3250,
      "Ġformer": 3251,
      "Ġexcept": 3252,
      "Ġaware": 3253,
      "set": 3254,
      "itting": 3255,
      "Ġinside": 3256,
      "Ġeasily": 3257,
      "ĠWilliam": 3258,
      "Ġsold": 3259,
      "Ġder": 3260,
      "Ġlocated": 3261,
      "ĠEl": 3262,
      "Ġ23": 3263,
      "ĠChurch": 3264,
      "Ġdifference": 3265,
      "Ġleading": 3266,
      "PA": 3267,
      "inct": 3268,
      "inate": 3269,
      "Ġinfection": 3270,
      "Ġanswer": 3271,
      "rote": 3272,
      "ĠPark": 3273,
      "Ġminutes": 3274,
      "ura": 3275,
      "Ġ2013": 3276,
      "ĠTechn": 3277,
      "Ġgame": 3278,
      "oke": 3279,
      "Ġdang": 3280,
      "Ġharm": 3281,
      "Ġtransm": 3282,
      "Ġinfluence": 3283,
      "iciency": 3284,
      "itte": 3285,
      "Ġdark": 3286,
      "Ġchalleng": 3287,
      "Ġgard": 3288,
      "ĠMon": 3289,
      "alled": 3290,
      "ĠAlso": 3291,
      "IV": 3292,
      "Ġborn": 3293,
      "ari": 3294,
      "Ġmanufact": 3295,
      "Ġagree": 3296,
      "Ġcoast": 3297,
      "Ġextra": 3298,
      "ĠCoun": 3299,
      "Ġdead": 3300,
      "Ġplanet": 3301,
      "40": 3302,
      "ider": 3303,
      "Ġforces": 3304,
      "ĠDecember": 3305,
      "ĠSim": 3306,
      "Ġadop": 3307,
      "Ġrock": 3308,
      "Ġhands": 3309,
      "ibrary": 3310,
      "This": 3311,
      "rance": 3312,
      "Ġarri": 3313,
      "Ġefforts": 3314,
      "Ġbott": 3315,
      "ĠOb": 3316,
      "Ġcenter": 3317,
      "Ġtrees": 3318,
      "Ġproperty": 3319,
      "Ġcompanies": 3320,
      "itch": 3321,
      "Ġang": 3322,
      "ĠNovember": 3323,
      "Ġgene": 3324,
      "Ġprior": 3325,
      "edom": 3326,
      "Ġmom": 3327,
      "ĠMod": 3328,
      "ĠJes": 3329,
      "Ġmonitor": 3330,
      "ica": 3331,
      "Ġevolution": 3332,
      "ĠDevelop": 3333,
      "Ġinn": 3334,
      "Ġcritical": 3335,
      "ĠSocial": 3336,
      "Ġtools": 3337,
      "Ġbad": 3338,
      "Ġvict": 3339,
      "Ġeval": 3340,
      "Ġgoal": 3341,
      "Ġnegative": 3342,
      "Ġbase": 3343,
      "Ġfra": 3344,
      "ĠCur": 3345,
      "ĠCity": 3346,
      "Ġ60": 3347,
      "Ġprotection": 3348,
      "Ġdecre": 3349,
      "Ġsupply": 3350,
      "ĠAfrica": 3351,
      "cks": 3352,
      "ĠInter": 3353,
      "nes": 3354,
      "Ġcode": 3355,
      "Ġdaily": 3356,
      "leb": 3357,
      "Ġasked": 3358,
      "ĠOur": 3359,
      "Ġeye": 3360,
      "gery": 3361,
      "Ġtit": 3362,
      "ĠRed": 3363,
      "ĠRead": 3364,
      "Ġfoods": 3365,
      "Ġallows": 3366,
      "Ġspeak": 3367,
      "EN": 3368,
      "Ġcool": 3369,
      "Ġlength": 3370,
      "Ġ2006": 3371,
      "Ġremains": 3372,
      "Ġeth": 3373,
      "Ġrecently": 3374,
      "Ġelse": 3375,
      "Ġwrite": 3376,
      "ĠSur": 3377,
      "ĠOff": 3378,
      "Ġunc": 3379,
      "Ġobt": 3380,
      "ĠAmericans": 3381,
      "Ġprogress": 3382,
      "Ġsites": 3383,
      "Ġcou": 3384,
      "Ġsomeone": 3385,
      "ony": 3386,
      "Ġlif": 3387,
      "Ġmemory": 3388,
      "Ġcapac": 3389,
      "ĠEast": 3390,
      "Ġagricult": 3391,
      "uff": 3392,
      "anks": 3393,
      "Ġbeyond": 3394,
      "odies": 3395,
      "iology": 3396,
      "ĠCour": 3397,
      "Ġsequ": 3398,
      "ridge": 3399,
      "Ġfather": 3400,
      "Ġnamed": 3401,
      "Ġstru": 3402,
      "ĠLondon": 3403,
      "Ġcontribut": 3404,
      "Ġoffer": 3405,
      "Ġprint": 3406,
      "Ġquickly": 3407,
      "ĠCounty": 3408,
      "eks": 3409,
      "uments": 3410,
      "ĠAre": 3411,
      "Ġquant": 3412,
      "Ġ2005": 3413,
      "Ġmultiple": 3414,
      "aces": 3415,
      "Ġrule": 3416,
      "Ġrequires": 3417,
      "ĠJournal": 3418,
      "Ġrare": 3419,
      "ĠCommun": 3420,
      "Ġbillion": 3421,
      "resh": 3422,
      "Ġsurround": 3423,
      "Ġvalues": 3424,
      "iques": 3425,
      "ĠGeneral": 3426,
      "Ġstra": 3427,
      "ields": 3428,
      "Ġachieve": 3429,
      "Ġhot": 3430,
      "Ġdestro": 3431,
      "ĠSystem": 3432,
      "Ġfight": 3433,
      "Ġunique": 3434,
      "Ġpregn": 3435,
      "ĠProf": 3436,
      "Ġestablish": 3437,
      "xic": 3438,
      "Ġwalk": 3439,
      "ĠAv": 3440,
      "izations": 3441,
      "ĠAng": 3442,
      "Ġgradu": 3443,
      "iverse": 3444,
      "Ġdied": 3445,
      "ĠDis": 3446,
      "Ġelements": 3447,
      "ĠEducation": 3448,
      "aly": 3449,
      "Ġhar": 3450,
      "Ġlines": 3451,
      "sec": 3452,
      "ĠDay": 3453,
      "Ġspirit": 3454,
      "70": 3455,
      "Ġuseful": 3456,
      "Ġplaces": 3457,
      "Ġessential": 3458,
      "Ġcitizens": 3459,
      "idents": 3460,
      "Ġanti": 3461,
      "ls": 3462,
      "Ġten": 3463,
      "Ġpp": 3464,
      "ects": 3465,
      "astic": 3466,
      "Ġdemand": 3467,
      "Ġaspect": 3468,
      "Ġcommunication": 3469,
      "ĠEngland": 3470,
      "Ġinvestig": 3471,
      "entially": 3472,
      "Ġund": 3473,
      "Ġnothing": 3474,
      "Ġadj": 3475,
      "ha": 3476,
      "iny": 3477,
      "Ġwaste": 3478,
      "Ġ2000": 3479,
      "AL": 3480,
      "come": 3481,
      "anic": 3482,
      "Ġbeg": 3483,
      "ĠTrans": 3484,
      "Ġcorn": 3485,
      "Ġhy": 3486,
      "ĠThen": 3487,
      "Ġwa": 3488,
      "Ġpen": 3489,
      "apter": 3490,
      "Ġaccom": 3491,
      "Ġdepend": 3492,
      "23": 3493,
      "24": 3494,
      "Ġfoot": 3495,
      "Ġhyp": 3496,
      "Ġimages": 3497,
      "ĠArch": 3498,
      "arian": 3499,
      "Ġvideo": 3500,
      "Ġappropriate": 3501,
      "med": 3502,
      "off": 3503,
      "Ġ:": 3504,
      "Ġanything": 3505,
      "Ġhighly": 3506,
      "ospital": 3507,
      "Ġobjects": 3508,
      "enth": 3509,
      "ĠEnvironment": 3510,
      "Ġdrugs": 3511,
      "oming": 3512,
      "ĠHouse": 3513,
      "Ġrapid": 3514,
      "fect": 3515,
      "atur": 3516,
      "oring": 3517,
      "aint": 3518,
      "Ġhelps": 3519,
      "abetes": 3520,
      "Ġpresident": 3521,
      "Ġoccurs": 3522,
      "iers": 3523,
      "verse": 3524,
      "ocr": 3525,
      "Ġweb": 3526,
      "airs": 3527,
      "water": 3528,
      "Ġexact": 3529,
      "Ġuser": 3530,
      "Ġcold": 3531,
      "Ġsecurity": 3532,
      "ference": 3533,
      "Ġtable": 3534,
      "Ġson": 3535,
      "Ġwoman": 3536,
      "Ġmiddle": 3537,
      "Ġsaw": 3538,
      "hetic": 3539,
      "lin": 3540,
      "Ġwrote": 3541,
      "Ġdecision": 3542,
      "Ġapplications": 3543,
      "sect": 3544,
      "ĠGreen": 3545,
      "Ġsustain": 3546,
      "Ġsn": 3547,
      "ancial": 3548,
      "Ġresponsible": 3549,
      "Ġensure": 3550,
      "Ġmal": 3551,
      "Ġmut": 3552,
      "Ġhon": 3553,
      "ils": 3554,
      "ĠPeople": 3555,
      "Ġwebsite": 3556,
      "ĠPat": 3557,
      "odes": 3558,
      "ĠThus": 3559,
      "Ġexposure": 3560,
      "Ġwinter": 3561,
      "ban": 3562,
      "ittee": 3563,
      "Ġaim": 3564,
      "Ġprinc": 3565,
      "Ġimag": 3566,
      "iber": 3567,
      "ĠUse": 3568,
      "ĠGreat": 3569,
      "joy": 3570,
      "oe": 3571,
      "Ġreach": 3572,
      "imal": 3573,
      "ĠSan": 3574,
      "Ġcosts": 3575,
      "Ġfigure": 3576,
      "rest": 3577,
      "aled": 3578,
      "ĠHigh": 3579,
      "Ġweeks": 3580,
      "Ġ193": 3581,
      "Ġpurpose": 3582,
      "cles": 3583,
      "ev": 3584,
      "oma": 3585,
      "ĠSw": 3586,
      "Ġgave": 3587,
      "ĠAnother": 3588,
      "irection": 3589,
      "ĠWhy": 3590,
      "Ġeconomy": 3591,
      "Ġspeed": 3592,
      "Ġbirds": 3593,
      "Ġillust": 3594,
      "ĠCouncil": 3595,
      "ĠEach": 3596,
      "Ġtransl": 3597,
      "hest": 3598,
      "enty": 3599,
      "Ġgives": 3600,
      "ĠBook": 3601,
      "ĠRoman": 3602,
      "ĠIslam": 3603,
      "Ġcollection": 3604,
      "ilosoph": 3605,
      "iar": 3606,
      "wide": 3607,
      "Ġfinal": 3608,
      "Ġriver": 3609,
      "year": 3610,
      "inated": 3611,
      "ruary": 3612,
      "Ġdiscovered": 3613,
      "Ġapprox": 3614,
      "Ġbenefit": 3615,
      "ĠOctober": 3616,
      "ico": 3617,
      "oted": 3618,
      "ĠDNA": 3619,
      "ĠRel": 3620,
      "udd": 3621,
      "ingu": 3622,
      "oday": 3623,
      "ipment": 3624,
      "back": 3625,
      "mar": 3626,
      "Ġbecomes": 3627,
      "Ġsituation": 3628,
      "Ġdate": 3629,
      "omb": 3630,
      "ĠMich": 3631,
      "Ġperhaps": 3632,
      "Ġcommerc": 3633,
      "ologist": 3634,
      "Ġexercise": 3635,
      "ĠAssociation": 3636,
      "rition": 3637,
      "Ġult": 3638,
      "Ġexpected": 3639,
      "Ġcurrently": 3640,
      "St": 3641,
      "ford": 3642,
      "Ġhope": 3643,
      "Ġsuccessful": 3644,
      "Ġnames": 3645,
      "Ġ190": 3646,
      "Ġteaching": 3647,
      "Ġlocation": 3648,
      "Ġcopy": 3649,
      "ky": 3650,
      "head": 3651,
      "Ġtowards": 3652,
      "Ġvitamin": 3653,
      "Ġ26": 3654,
      "Ġrates": 3655,
      "ĠJust": 3656,
      "Ġthinking": 3657,
      "Ġadults": 3658,
      "Ġfear": 3659,
      "Ġdry": 3660,
      "olar": 3661,
      "Ġalt": 3662,
      "Ġconstruction": 3663,
      "enge": 3664,
      "Ġwaters": 3665,
      "ida": 3666,
      "ĠJesus": 3667,
      "Ġmis": 3668,
      "Ġexpand": 3669,
      "ought": 3670,
      "Ġinteresting": 3671,
      "ĠJews": 3672,
      "Ġsch": 3673,
      "ĠOver": 3674,
      "ĠProgram": 3675,
      "Ġsexual": 3676,
      "equ": 3677,
      "Ġsem": 3678,
      "Ġcontroll": 3679,
      "iece": 3680,
      "Ġeffort": 3681,
      "Ġnuclear": 3682,
      "29": 3683,
      "Ġ*": 3684,
      "reet": 3685,
      "orks": 3686,
      "Ġalone": 3687,
      "Ġearlier": 3688,
      "pire": 3689,
      "vest": 3690,
      "king": 3691,
      "Ġfollowed": 3692,
      "oud": 3693,
      "Ġcoming": 3694,
      "Ġpeace": 3695,
      "Ġmodels": 3696,
      "Ġaffected": 3697,
      "26": 3698,
      "eff": 3699,
      "time": 3700,
      "omy": 3701,
      "resp": 3702,
      "Ġproviding": 3703,
      "vant": 3704,
      "Ġball": 3705,
      "urg": 3706,
      "Ġacqu": 3707,
      "Ġformed": 3708,
      "Ġdistance": 3709,
      "Ġreceive": 3710,
      "lor": 3711,
      "Ġfeatures": 3712,
      "Ġplaced": 3713,
      "cop": 3714,
      "ession": 3715,
      "ĠWeb": 3716,
      "Ġdevice": 3717,
      "Ġappears": 3718,
      "Ġtrib": 3719,
      "Ġwon": 3720,
      "Ġhistorical": 3721,
      "ĠMars": 3722,
      "ander": 3723,
      "Ġ195": 3724,
      "Ġelectr": 3725,
      "Ġdevices": 3726,
      "Ġcalc": 3727,
      "Ġstay": 3728,
      "Ġvirt": 3729,
      "Ġtherapy": 3730,
      "ext": 3731,
      "Ġceleb": 3732,
      "iot": 3733,
      "Ġsymb": 3734,
      "Ġcompletely": 3735,
      "ĠCongress": 3736,
      "Ġ28": 3737,
      "Ġstandards": 3738,
      "Ġeyes": 3739,
      "ĠMuslim": 3740,
      "Ġbeaut": 3741,
      "Ġ2004": 3742,
      "Ġapplied": 3743,
      "aught": 3744,
      "Ġmission": 3745,
      "icate": 3746,
      "Ġtechniques": 3747,
      "Ġteacher": 3748,
      "ED": 3749,
      "Ġfast": 3750,
      "Ġmiss": 3751,
      "ĠNAS": 3752,
      "Ġgoes": 3753,
      "Ġstrateg": 3754,
      "Ġmention": 3755,
      "rief": 3756,
      "Ġsmaller": 3757,
      "Ġallowed": 3758,
      "Ġolder": 3759,
      "ĠSun": 3760,
      "Ġlegisl": 3761,
      "ĠBlack": 3762,
      "rab": 3763,
      "ĠInternet": 3764,
      "Ġmember": 3765,
      "rees": 3766,
      "Ġdegree": 3767,
      "Ġseparate": 3768,
      "ĠMor": 3769,
      "Ġrise": 3770,
      "ĠProt": 3771,
      "Ġshowed": 3772,
      "ĠSpec": 3773,
      "orge": 3774,
      "ocol": 3775,
      "wards": 3776,
      "Ġdeal": 3777,
      "Ġimportance": 3778,
      "Ġoccup": 3779,
      "Ġtesting": 3780,
      "hemat": 3781,
      "Ġanaly": 3782,
      "ald": 3783,
      "Ġmax": 3784,
      "Ġneigh": 3785,
      "Ġreports": 3786,
      "nam": 3787,
      "idel": 3788,
      "Ġleave": 3789,
      "Ġenjoy": 3790,
      "Ġweather": 3791,
      "cious": 3792,
      "ixed": 3793,
      "Ġconstruct": 3794,
      "Ġhous": 3795,
      "Ġrepe": 3796,
      "Ġscreen": 3797,
      "ype": 3798,
      "Ġconflic": 3799,
      "Ġiniti": 3800,
      "Ġgenes": 3801,
      "ĠFound": 3802,
      "izes": 3803,
      "Ġtechnologies": 3804,
      "Ġdidn": 3805,
      "EC": 3806,
      "semb": 3807,
      "ĠPublic": 3808,
      "ĠLear": 3809,
      "Ġmedicine": 3810,
      "Ġcultural": 3811,
      "Ġalcohol": 3812,
      "ĠEv": 3813,
      "78": 3814,
      "ĠTheir": 3815,
      "Ġphysic": 3816,
      "Ġversion": 3817,
      "Ġmaintain": 3818,
      "Ġexpect": 3819,
      "Ġmajority": 3820,
      "Ġtrying": 3821,
      "ĠFebruary": 3822,
      "Ġcook": 3823,
      "Ġpow": 3824,
      "ula": 3825,
      "aced": 3826,
      "Ġtele": 3827,
      "Ġfeed": 3828,
      "ken": 3829,
      "ĠJames": 3830,
      "Ġusers": 3831,
      "Ġoffice": 3832,
      "Ġprin": 3833,
      "rane": 3834,
      "known": 3835,
      "ĠGovernment": 3836,
      "ĠUnder": 3837,
      "Ġdisorders": 3838,
      "Ġinstru": 3839,
      "Ġadvant": 3840,
      "____": 3841,
      "Ġdestroy": 3842,
      "Ġmel": 3843,
      "Ġdirection": 3844,
      "Ġrules": 3845,
      "Ġblock": 3846,
      "Ġrespond": 3847,
      "Ġbacteria": 3848,
      "DA": 3849,
      "II": 3850,
      "itable": 3851,
      "Ġexperim": 3852,
      "Ġequipment": 3853,
      "ĠColle": 3854,
      "ĠNASA": 3855,
      "Ġequal": 3856,
      "Ġpopulations": 3857,
      "Ġpassed": 3858,
      "ĠMedicine": 3859,
      "ĠChildren": 3860,
      "Ġcrop": 3861,
      "Ġstories": 3862,
      "Ġcompar": 3863,
      "Ġjournal": 3864,
      "Ġeverything": 3865,
      "Ġcustom": 3866,
      "OS": 3867,
      "Ġcommonly": 3868,
      "Ġpet": 3869,
      "Ġupper": 3870,
      "ests": 3871,
      "ĠFin": 3872,
      "ĠUnion": 3873,
      "Ġ186": 3874,
      "Ġfair": 3875,
      "Ġreasons": 3876,
      "ĠHuman": 3877,
      "Ġ29": 3878,
      "Ġbelief": 3879,
      "Ġthousands": 3880,
      "Ġgod": 3881,
      "ĠRev": 3882,
      "Ġorganization": 3883,
      "ech": 3884,
      "more": 3885,
      "Ġocean": 3886,
      "ĠMex": 3887,
      "ciples": 3888,
      "Ġfully": 3889,
      "icip": 3890,
      "Ġves": 3891,
      "Ġ189": 3892,
      "pir": 3893,
      "igen": 3894,
      "Ġautom": 3895,
      "Ġidentified": 3896,
      "Ġfinancial": 3897,
      "ĠGermany": 3898,
      "Ġsteps": 3899,
      "ĠToday": 3900,
      "Ġlat": 3901,
      "Ġstaff": 3902,
      "Ġrich": 3903,
      "rupt": 3904,
      "Ġtrad": 3905,
      "Ġbelieved": 3906,
      "ĠBra": 3907,
      "Ġexec": 3908,
      "Ġtrack": 3909,
      "que": 3910,
      "ĠInst": 3911,
      "Ġchanged": 3912,
      "och": 3913,
      "Ġbound": 3914,
      "ĠNet": 3915,
      "Ġprocesses": 3916,
      "Ġexisting": 3917,
      "ara": 3918,
      "Ġpoly": 3919,
      "27": 3920,
      "AC": 3921,
      "HE": 3922,
      "Ġworked": 3923,
      "Ġreference": 3924,
      "oration": 3925,
      "ĠPaul": 3926,
      "ĠDes": 3927,
      "ĠPhil": 3928,
      "Ġpractices": 3929,
      "ĠMary": 3930,
      "inese": 3931,
      "Ġrecords": 3932,
      "riage": 3933,
      "Ġ27": 3934,
      "Ġlimit": 3935,
      "Ġrelatively": 3936,
      "rehens": 3937,
      "ĠAir": 3938,
      "Ġadapt": 3939,
      "Ġrain": 3940,
      "Ġdefined": 3941,
      "Ġreduced": 3942,
      "Ġprojects": 3943,
      "'ve": 3944,
      "Ġconsequ": 3945,
      "aign": 3946,
      "Ġtou": 3947,
      "Ġconver": 3948,
      "Ġcreating": 3949,
      "Ġstatus": 3950,
      "ĠPal": 3951,
      "Ġregions": 3952,
      "Ġpowerful": 3953,
      "Ġbreast": 3954,
      "unte": 3955,
      "ĠRepublic": 3956,
      "Â°": 3957,
      "Ġcra": 3958,
      "asion": 3959,
      "Ġadm": 3960,
      "Ġchoice": 3961,
      "ĠCO": 3962,
      "Ġsurgery": 3963,
      "Ġ...": 3964,
      "encies": 3965,
      "pped": 3966,
      "Ġassign": 3967,
      "Ġexamples": 3968,
      "porary": 3969,
      "Ġreleased": 3970,
      "Ġpicture": 3971,
      "itis": 3972,
      "Ġmental": 3973,
      "ĠAut": 3974,
      "ĠMuseum": 3975,
      "Ġbaby": 3976,
      "Ġwond": 3977,
      "ĠOnce": 3978,
      "Ġboard": 3979,
      "oo": 3980,
      "icial": 3981,
      "Ġvot": 3982,
      "Ġcoord": 3983,
      "Ġpredict": 3984,
      "ĠCourt": 3985,
      "ĠSam": 3986,
      "ĠDec": 3987,
      "Ġoffers": 3988,
      "Ġfactor": 3989,
      "Ġdisplay": 3990,
      "Ġbreat": 3991,
      "ibly": 3992,
      "phas": 3993,
      "Ġproperties": 3994,
      "force": 3995,
      "28": 3996,
      "Ġchurch": 3997,
      "Ġeveryone": 3998,
      "Ġgrant": 3999,
      "Ġfruit": 4000,
      "Ġstrength": 4001,
      "Ġmer": 4002,
      "ĠMal": 4003,
      "ĠRober": 4004,
      "Ġdecades": 4005,
      "ĠFlor": 4006,
      "Ġfriends": 4007,
      "Ġfaith": 4008,
      "Ġcapacity": 4009,
      "abilities": 4010,
      "Ġvacc": 4011,
      "Ġincreases": 4012,
      "Ġconstant": 4013,
      "Ġrunning": 4014,
      "Ġmoment": 4015,
      "Ġcommercial": 4016,
      "iable": 4017,
      "Ġturned": 4018,
      "Ġswe": 4019,
      "amer": 4020,
      "ocks": 4021,
      "Ġseven": 4022,
      "Ġkid": 4023,
      "Ġdiabetes": 4024,
      "Ġmig": 4025,
      "ĠIsland": 4026,
      "ĠVirgin": 4027,
      "Ġfresh": 4028,
      "Ġroom": 4029,
      "Ġfunctions": 4030,
      "Ġbodies": 4031,
      "ĠTex": 4032,
      "Ġstream": 4033,
      "ĠDirect": 4034,
      "ĠCollege": 4035,
      "bl": 4036,
      "atin": 4037,
      "orage": 4038,
      "ste": 4039,
      "ĠLet": 4040,
      "Ġnote": 4041,
      "Ġroad": 4042,
      "Ġ2003": 4043,
      "Ġpersons": 4044,
      "Ġdetermined": 4045,
      "Ġeventually": 4046,
      "bre": 4047,
      "fort": 4048,
      "ĠWestern": 4049,
      "ĠRich": 4050,
      "Ġrob": 4051,
      "Ġtransfer": 4052,
      "Ġsuggests": 4053,
      "Ġdoub": 4054,
      "Ġstar": 4055,
      "Ġconservation": 4056,
      "Ġtruth": 4057,
      "Ġmilk": 4058,
      "Ġtum": 4059,
      "Ġdivid": 4060,
      "ctors": 4061,
      "Ġparty": 4062,
      "Ġexpress": 4063,
      "Ġtypically": 4064,
      "Ġopportunity": 4065,
      "RE": 4066,
      "su": 4067,
      "ygen": 4068,
      "Ġsect": 4069,
      "unction": 4070,
      "Ġ2001": 4071,
      "ĠPlan": 4072,
      "Ġapproximately": 4073,
      "Ch": 4074,
      "iful": 4075,
      "Ġdifferences": 4076,
      "Ġmoving": 4077,
      "antic": 4078,
      "ogen": 4079,
      "lick": 4080,
      "Ġfindings": 4081,
      "Ġveh": 4082,
      "load": 4083,
      "ĠAustralia": 4084,
      "Ġvia": 4085,
      "ĠCD": 4086,
      "Ġwhom": 4087,
      "ciences": 4088,
      "Ġacadem": 4089,
      "cial": 4090,
      "ĠMic": 4091,
      "ĠHen": 4092,
      "Ġwid": 4093,
      "Ġphen": 4094,
      "Ġmob": 4095,
      "ĠMiss": 4096,
      "rome": 4097,
      "Ġreserv": 4098,
      "Ġscale": 4099,
      "Ġassist": 4100,
      "ĠCommission": 4101,
      "Ġdrive": 4102,
      "ĠDevelopment": 4103,
      "33": 4104,
      "itect": 4105,
      "Ġpiece": 4106,
      "Ġisn": 4107,
      "Ġplans": 4108,
      "ĠChinese": 4109,
      "Ġatmosphere": 4110,
      "Ġpresence": 4111,
      "Ġmeasures": 4112,
      "men": 4113,
      "Ġ+": 4114,
      "aria": 4115,
      "Ġship": 4116,
      "BN": 4117,
      "ĠScient": 4118,
      "ament": 4119,
      "ĠMass": 4120,
      "Ġspring": 4121,
      "Ġsolution": 4122,
      "ĠTwo": 4123,
      "Ġlived": 4124,
      "ĠRo": 4125,
      "ĠCommon": 4126,
      "Ġrelease": 4127,
      "Ġtissue": 4128,
      "co": 4129,
      "house": 4130,
      "ria": 4131,
      "Ġchance": 4132,
      "Ġpurch": 4133,
      "Ġstrugg": 4134,
      "rations": 4135,
      "Ġaid": 4136,
      "Ġsac": 4137,
      "Ġcru": 4138,
      "itz": 4139,
      "ĠLa": 4140,
      "Ġunivers": 4141,
      "ĠSer": 4142,
      "ĠSub": 4143,
      "ĠPort": 4144,
      "Ġdisp": 4145,
      "Ġ2002": 4146,
      "Ġrecommend": 4147,
      "Ġalternative": 4148,
      "Ġclinical": 4149,
      "Ġradio": 4150,
      "Ġillness": 4151,
      "Ġdetails": 4152,
      "Ġfemale": 4153,
      "Ġimmediately": 4154,
      "Ġmo": 4155,
      "Ġenh": 4156,
      "Ġpatterns": 4157,
      "Ġfavor": 4158,
      "ĠMount": 4159,
      "Ġdistribution": 4160,
      "Ġforeign": 4161,
      "gment": 4162,
      "iant": 4163,
      "ulf": 4164,
      "ĠLord": 4165,
      "ribute": 4166,
      "gal": 4167,
      "Ġnorm": 4168,
      "ĠSen": 4169,
      "berg": 4170,
      "Ġfreedom": 4171,
      "Ġhighest": 4172,
      "Ġlayer": 4173,
      "ĠDem": 4174,
      "Ġvision": 4175,
      "Ġindustrial": 4176,
      "ios": 4177,
      "ĠLou": 4178,
      "Ġshape": 4179,
      "Ġeducational": 4180,
      "ographic": 4181,
      "Ġchoose": 4182,
      "hors": 4183,
      "pris": 4184,
      "Ġforward": 4185,
      "Ġcontract": 4186,
      "ologists": 4187,
      "Ġnovel": 4188,
      "Ġkilled": 4189,
      "road": 4190,
      "Ġhuge": 4191,
      "ĠMedical": 4192,
      "Ġclearly": 4193,
      "AM": 4194,
      "Ġmap": 4195,
      "Ġactual": 4196,
      "Ġprison": 4197,
      "ees": 4198,
      "Ġcateg": 4199,
      "Ġyouth": 4200,
      "ĠDon": 4201,
      "Ġsigns": 4202,
      "Ġpip": 4203,
      "ĠCivil": 4204,
      "ĠFrance": 4205,
      "Ġarmy": 4206,
      "Ġinform": 4207,
      "Ġinterpret": 4208,
      ".;": 4209,
      "ml": 4210,
      "mat": 4211,
      "Ġnor": 4212,
      "ĠMr": 4213,
      "ĠMet": 4214,
      "ellig": 4215,
      "Ġnumerous": 4216,
      "Ġslight": 4217,
      "Ġnorthern": 4218,
      "Ġincor": 4219,
      "Ġorganizations": 4220,
      "Ġwrong": 4221,
      "Ġmessage": 4222,
      "iability": 4223,
      "Ġkn": 4224,
      "Ġcontrast": 4225,
      "Ġstructures": 4226,
      "ĠBritain": 4227,
      "Ġobserved": 4228,
      "respond": 4229,
      "Ġbran": 4230,
      "anish": 4231,
      "Ġtoxic": 4232,
      "Ġfamous": 4233,
      "clus": 4234,
      "Ġpresented": 4235,
      "part": 4236,
      "Ġinsect": 4237,
      "ĠPhys": 4238,
      "ĠMag": 4239,
      "Ġnoted": 4240,
      "Ġworth": 4241,
      "ĠThom": 4242,
      "Ġsitu": 4243,
      "Ġliterature": 4244,
      "Ġcry": 4245,
      "Ġbra": 4246,
      "Ġround": 4247,
      "ĠWhite": 4248,
      "Ġtrial": 4249,
      "Ġprofessional": 4250,
      "cast": 4251,
      "Ġfert": 4252,
      "ĠFore": 4253,
      "ĠRob": 4254,
      "ĠViet": 4255,
      "Ġload": 4256,
      "hy": 4257,
      "ĠIts": 4258,
      "ĠNews": 4259,
      "Ġintroduced": 4260,
      "Ġopportunities": 4261,
      "Ġelectricity": 4262,
      "Ġestimated": 4263,
      "itors": 4264,
      "acific": 4265,
      "Ġnotes": 4266,
      "Ġspect": 4267,
      "Ġblue": 4268,
      "iox": 4269,
      "related": 4270,
      "ĠGreek": 4271,
      "Ġvessel": 4272,
      "Ġtreated": 4273,
      "Ġconnection": 4274,
      "ĠGeorge": 4275,
      "ĠAcadem": 4276,
      "Ġsong": 4277,
      "Ġwatch": 4278,
      "isher": 4279,
      "Ġpan": 4280,
      "Ġpul": 4281,
      "Ġstage": 4282,
      "Ġconv": 4283,
      "Ġweak": 4284,
      "Ġqual": 4285,
      "Ġattract": 4286,
      "ĠEnergy": 4287,
      "ĠAtl": 4288,
      "35": 4289,
      "ifically": 4290,
      "eces": 4291,
      "apers": 4292,
      "Ġefficient": 4293,
      "Ġarr": 4294,
      "Ġyourself": 4295,
      "ĠKore": 4296,
      "Ġrot": 4297,
      "Ġinstance": 4298,
      "Ġenter": 4299,
      "Ġvisual": 4300,
      "Ġoperations": 4301,
      "Ġign": 4302,
      "Ġfoss": 4303,
      "ĠAlex": 4304,
      "ĠMart": 4305,
      "ĠProject": 4306,
      "Ġinstruct": 4307,
      "Ġlearned": 4308,
      "Ġbelong": 4309,
      "Ġchallenge": 4310,
      "Ġwidely": 4311,
      "za": 4312,
      "Ġlic": 4313,
      "Ġexplain": 4314,
      "Ġmeeting": 4315,
      "bed": 4316,
      "Ġbone": 4317,
      "Ġeating": 4318,
      ".|": 4319,
      "45": 4320,
      "Ġexhib": 4321,
      "Ġresource": 4322,
      "Ġtraff": 4323,
      "Ġdistinct": 4324,
      "Ġmoved": 4325,
      "Ġannual": 4326,
      "Ġconducted": 4327,
      "ped": 4328,
      "Ġesc": 4329,
      "Ġinfl": 4330,
      "'ll": 4331,
      "Ġreb": 4332,
      "Ġserve": 4333,
      "Ġcities": 4334,
      "ĠLife": 4335,
      "aste": 4336,
      "Ġopin": 4337,
      "ctic": 4338,
      "ĠCop": 4339,
      "rian": 4340,
      "Ġheavy": 4341,
      "Ġsort": 4342,
      "Ġrat": 4343,
      "Ġoverall": 4344,
      "Ġactions": 4345,
      "Ġhom": 4346,
      "ĠWork": 4347,
      "Ġrul": 4348,
      "Ġphilosoph": 4349,
      "Ġsurvey": 4350,
      "Ġcarried": 4351,
      "ĠTexas": 4352,
      "gl": 4353,
      "ĠMill": 4354,
      "ĠFood": 4355,
      "Ġdesp": 4356,
      "Ġindependent": 4357,
      "Ġgiving": 4358,
      "ĠInformation": 4359,
      "Ġevalu": 4360,
      "band": 4361,
      "Ġgir": 4362,
      "iding": 4363,
      "Ġrang": 4364,
      "ĠSpace": 4365,
      "Ġofficials": 4366,
      "Ġoxygen": 4367,
      "zy": 4368,
      "Ġlib": 4369,
      "Ġhearing": 4370,
      "Ġleaves": 4371,
      "Ġperfect": 4372,
      "Ġpolice": 4373,
      "Ġproposed": 4374,
      "Ġconnect": 4375,
      "Ġtro": 4376,
      "Ġbill": 4377,
      "ĠTest": 4378,
      "ensus": 4379,
      "Ġfriend": 4380,
      "Ġgarden": 4381,
      "erate": 4382,
      "ĠMil": 4383,
      "Ġvary": 4384,
      "Ġunf": 4385,
      "cipl": 4386,
      "ĠAsia": 4387,
      "Ġemissions": 4388,
      "Ġgeneration": 4389,
      "ias": 4390,
      "rig": 4391,
      "Ġdim": 4392,
      "Ġreached": 4393,
      "Ġremember": 4394,
      "name": 4395,
      "ented": 4396,
      "ensity": 4397,
      "Ġexperiment": 4398,
      "Ġchronic": 4399,
      "Ġmeat": 4400,
      "Ġapply": 4401,
      "arge": 4402,
      "ords": 4403,
      "Ġgets": 4404,
      "Ġprofessor": 4405,
      "Ġremoved": 4406,
      "ĠISBN": 4407,
      "ET": 4408,
      "Ġdyn": 4409,
      "Ġstorage": 4410,
      "ĠWomen": 4411,
      "Ġcontext": 4412,
      "Ġdigital": 4413,
      "rm": 4414,
      "level": 4415,
      "Ġunit": 4416,
      "Ġemphas": 4417,
      "Ġcand": 4418,
      "Ġwest": 4419,
      "Ġgold": 4420,
      "Ġcreation": 4421,
      "Ġclassroom": 4422,
      "Ġcycle": 4423,
      "Ġsquare": 4424,
      "ĠEvery": 4425,
      "Ġteach": 4426,
      "Ġflood": 4427,
      "Ġcorrespond": 4428,
      "Ġfilm": 4429,
      "Ġbehavi": 4430,
      "ĠStudents": 4431,
      "ault": 4432,
      "Ġtim": 4433,
      "Ġwife": 4434,
      "Ġlung": 4435,
      "ĠFig": 4436,
      "Ġchief": 4437,
      "ortion": 4438,
      "Ġenem": 4439,
      "Ġassum": 4440,
      "Ġserved": 4441,
      "Ġterrit": 4442,
      "Ġcampaign": 4443,
      "ht": 4444,
      "Ġbattle": 4445,
      "roc": 4446,
      "Ġnative": 4447,
      "ocal": 4448,
      "Ġdisorder": 4449,
      "Ġfeature": 4450,
      "Ġbottom": 4451,
      "Ġtub": 4452,
      "atab": 4453,
      "Ġpric": 4454,
      "ĠGra": 4455,
      "Ġspent": 4456,
      "Ġpartners": 4457,
      "Ġstatement": 4458,
      "ares": 4459,
      "gress": 4460,
      "orial": 4461,
      "ado": 4462,
      "âĢĿ.": 4463,
      "Ġ35": 4464,
      "Ġreprodu": 4465,
      "Ġprice": 4466,
      "Ġminor": 4467,
      "Ġ80": 4468,
      "ij": 4469,
      "iance": 4470,
      "Ġsed": 4471,
      "Ġpal": 4472,
      "ĠDef": 4473,
      "Ġcoal": 4474,
      "Ġbox": 4475,
      "Ġtemperatures": 4476,
      "Ġreligion": 4477,
      "Ġpages": 4478,
      "Ġfields": 4479,
      "Ġmale": 4480,
      "Ġconvers": 4481,
      "Ġsugar": 4482,
      "Ġspeech": 4483,
      "Ġelement": 4484,
      "Ġinnov": 4485,
      "Ġhomes": 4486,
      "ĠBer": 4487,
      "Ġhear": 4488,
      "ĠAbout": 4489,
      "Ġfrequently": 4490,
      "Ġcounter": 4491,
      "win": 4492,
      "icon": 4493,
      "ĠUp": 4494,
      "Ġmit": 4495,
      "ota": 4496,
      "ĠBu": 4497,
      "Ġdecided": 4498,
      "oyal": 4499,
      "Ġdepression": 4500,
      "Ġurl": 4501,
      "Ġchemicals": 4502,
      "Ġsymbol": 4503,
      "ĠIr": 4504,
      "ously": 4505,
      "Ġ185": 4506,
      "Ġinterested": 4507,
      "Ġperformed": 4508,
      "Ġreturned": 4509,
      "Ġpick": 4510,
      "Ġnav": 4511,
      "ola": 4512,
      "ĠGr": 4513,
      "Ġpret": 4514,
      "Ġsyn": 4515,
      "Ġelim": 4516,
      "US": 4517,
      "Ġquar": 4518,
      "rence": 4519,
      "Ġremained": 4520,
      "Ġhappen": 4521,
      "Ġfit": 4522,
      "Ġhour": 4523,
      "aped": 4524,
      "Ġfailure": 4525,
      "ĠService": 4526,
      "tical": 4527,
      "Ġdram": 4528,
      "amental": 4529,
      "Ġheard": 4530,
      "Ġhair": 4531,
      "Ġtrend": 4532,
      "Ġextremely": 4533,
      "rog": 4534,
      "ĠCath": 4535,
      "osy": 4536,
      "Ġ90": 4537,
      "Ġfinally": 4538,
      "Ġcombination": 4539,
      "Ġdoll": 4540,
      "urance": 4541,
      "Ġimmune": 4542,
      "ĠQue": 4543,
      "aur": 4544,
      "Ġpi": 4545,
      "urt": 4546,
      "essor": 4547,
      "Ġmuscle": 4548,
      "Ġmachine": 4549,
      "atric": 4550,
      "ĠPacific": 4551,
      "Ġguide": 4552,
      "ĠCharles": 4553,
      "Ġcredit": 4554,
      "met": 4555,
      "ero": 4556,
      "Ġincome": 4557,
      "Ġcomprehens": 4558,
      "Ġsynt": 4559,
      "Ġradiation": 4560,
      "ĠTechnology": 4561,
      "ĠBoth": 4562,
      "Ġneu": 4563,
      "ĠKen": 4564,
      "Ġauthors": 4565,
      "Ġbrother": 4566,
      "Ġdescribe": 4567,
      "Ġdiscussion": 4568,
      "ÃŃ": 4569,
      "ĠFederal": 4570,
      "key": 4571,
      "Ġexposed": 4572,
      "Ġexpression": 4573,
      "ixt": 4574,
      "isation": 4575,
      "Ġstyle": 4576,
      "ĠRobert": 4577,
      "75": 4578,
      "Ġ#": 4579,
      "atically": 4580,
      "ndrome": 4581,
      "Ġgrand": 4582,
      "Ġ70": 4583,
      "Ġforced": 4584,
      "ĠOld": 4585,
      "Ġfinding": 4586,
      "Ġantib": 4587,
      "ĠHistor": 4588,
      "90": 4589,
      "EM": 4590,
      "tes": 4591,
      "olved": 4592,
      "ĠHol": 4593,
      "akers": 4594,
      "Ġrace": 4595,
      "Ġhelped": 4596,
      "Ġresulting": 4597,
      "Ġdro": 4598,
      "olute": 4599,
      "Ġanyone": 4600,
      "Ġletter": 4601,
      "Ġreaction": 4602,
      "Ġregarding": 4603,
      "Ġsouthern": 4604,
      "Ġliqu": 4605,
      "Ġstore": 4606,
      "Ġinvolve": 4607,
      "Ġreferred": 4608,
      "arrow": 4609,
      "Ġreality": 4610,
      "uses": 4611,
      "Ġexcess": 4612,
      "Ġmathemat": 4613,
      "ircraft": 4614,
      "Ġcast": 4615,
      "Ġisol": 4616,
      "Ġgain": 4617,
      "Ġmeant": 4618,
      "Ġstudied": 4619,
      "Ġupd": 4620,
      "Ġkept": 4621,
      "Ġ1999": 4622,
      "Ġpolicies": 4623,
      "aughter": 4624,
      "Ġchallenges": 4625,
      "Ġsav": 4626,
      "ching": 4627,
      "Ġoccurred": 4628,
      "ĠFlorida": 4629,
      "yro": 4630,
      "erior": 4631,
      "ĠPost": 4632,
      "Ġalle": 4633,
      "Ġplanning": 4634,
      "ĠValley": 4635,
      "ael": 4636,
      "ĠSom": 4637,
      "ounced": 4638,
      "ĠSecond": 4639,
      "Ġplease": 4640,
      "lease": 4641,
      "Ġrenew": 4642,
      "Ġlinks": 4643,
      "verty": 4644,
      "Ġarticles": 4645,
      "Ġsolid": 4646,
      "Ġbuildings": 4647,
      "ĠCanadian": 4648,
      "Ġmorning": 4649,
      "ingly": 4650,
      "Ġeast": 4651,
      "ĠBrown": 4652,
      "ĠWell": 4653,
      "ĠFre": 4654,
      "Ġbecoming": 4655,
      "Ġaccur": 4656,
      "Ġpoverty": 4657,
      "Ġscen": 4658,
      "Ġgraph": 4659,
      "Ġleader": 4660,
      "clop": 4661,
      "Ġsusp": 4662,
      "ĠEnvironmental": 4663,
      "ĠLouis": 4664,
      "do": 4665,
      "opath": 4666,
      "Ġarm": 4667,
      "Ġidentity": 4668,
      "Ġconclud": 4669,
      "Ġstrategies": 4670,
      "ĠVirginia": 4671,
      "isp": 4672,
      "Ġfib": 4673,
      "ĠBel": 4674,
      "ĠHIV": 4675,
      "Ġsecret": 4676,
      "Ġconfirm": 4677,
      "ĠCompany": 4678,
      "Ġvictim": 4679,
      "ping": 4680,
      "rus": 4681,
      "west": 4682,
      "Ġcris": 4683,
      "Ġded": 4684,
      "raw": 4685,
      "Ġvo": 4686,
      "Ġsave": 4687,
      "ĠProv": 4688,
      "Ġ1990": 4689,
      "Ġsaying": 4690,
      "cont": 4691,
      "well": 4692,
      "alle": 4693,
      "Ġmouth": 4694,
      "ager": 4695,
      "ĠYet": 4696,
      "198": 4697,
      "ĠOrgan": 4698,
      "Ġprinciples": 4699,
      "Ġfine": 4700,
      "ano": 4701,
      "uted": 4702,
      "ams": 4703,
      "ĠPub": 4704,
      "ĠBay": 4705,
      "Ġabsor": 4706,
      "ĠJapanese": 4707,
      "Ġdrinking": 4708,
      "38": 4709,
      "Americ": 4710,
      "Ġdetect": 4711,
      "ributed": 4712,
      "Ġcomponents": 4713,
      "RI": 4714,
      "ĠSl": 4715,
      "Ġstarting": 4716,
      "Ġpreviously": 4717,
      "Ġarchitect": 4718,
      "Ġprepared": 4719,
      "36": 4720,
      "ux": 4721,
      "ĠTit": 4722,
      "Ġvote": 4723,
      "Ġchart": 4724,
      "Ġmotor": 4725,
      "Ġcollabor": 4726,
      "32": 4727,
      "greg": 4728,
      "Ġobvious": 4729,
      "pective": 4730,
      "Ġinitial": 4731,
      "Ġvillage": 4732,
      "mark": 4733,
      "Ġsand": 4734,
      "ishes": 4735,
      "Ġconstit": 4736,
      "illing": 4737,
      "erences": 4738,
      "ĠReview": 4739,
      "Ġconsumption": 4740,
      "BC": 4741,
      "Ġdu": 4742,
      "ĠTHE": 4743,
      "ample": 4744,
      "Ġreplace": 4745,
      "Ġthick": 4746,
      "oper": 4747,
      "Ġmostly": 4748,
      "Ġshowing": 4749,
      "Ġsignificantly": 4750,
      "Ġcovered": 4751,
      "omic": 4752,
      "ĠAN": 4753,
      "uration": 4754,
      "ĠBas": 4755,
      "Ġinfections": 4756,
      "Ġeasier": 4757,
      "unting": 4758,
      "ĠTur": 4759,
      "Ġstim": 4760,
      "Ġvent": 4761,
      "ĠGood": 4762,
      "ĠLabor": 4763,
      "Ġcharge": 4764,
      "Ġoptions": 4765,
      "kin": 4766,
      "Ġfif": 4767,
      "Ġresistance": 4768,
      "Ġdiscrim": 4769,
      "Ġcere": 4770,
      "ndom": 4771,
      "Ġpaid": 4772,
      "ĠSal": 4773,
      "ellect": 4774,
      "ĠUK": 4775,
      "Ġcontem": 4776,
      "ĠFranc": 4777,
      "Ġbalance": 4778,
      "Ġtrou": 4779,
      "ĠStand": 4780,
      "Ġprefer": 4781,
      "rick": 4782,
      "Ġrandom": 4783,
      "Ġemail": 4784,
      "Ġtechnique": 4785,
      "Ġcausing": 4786,
      "ona": 4787,
      "ollow": 4788,
      "ĠBudd": 4789,
      "ago": 4790,
      "Ġexplan": 4791,
      "ĠOffice": 4792,
      "Ġaspects": 4793,
      "CC": 4794,
      "care": 4795,
      "crib": 4796,
      "wood": 4797,
      "Ġhus": 4798,
      "istan": 4799,
      "ĠFurther": 4800,
      "ĠRights": 4801,
      "ĠNote": 4802,
      "Ġspot": 4803,
      "Ġdepos": 4804,
      "Ġchanging": 4805,
      "Ġdegrees": 4806,
      "rum": 4807,
      "Ġdrop": 4808,
      "ĠSum": 4809,
      "ĠWild": 4810,
      "umn": 4811,
      "ĠLike": 4812,
      "Ġbackground": 4813,
      "Ġpil": 4814,
      "Ġburn": 4815,
      "Ġmere": 4816,
      "ĠST": 4817,
      "ĠMD": 4818,
      "Ġexperienced": 4819,
      "gra": 4820,
      "uing": 4821,
      "ĠMark": 4822,
      "ishing": 4823,
      "spec": 4824,
      "Ġcharacteristics": 4825,
      "Ġdefinition": 4826,
      "Ġisland": 4827,
      "ĠMat": 4828,
      "Ġintended": 4829,
      "Ġtransform": 4830,
      "ĠCentral": 4831,
      "Ġmotion": 4832,
      "Ġsufficient": 4833,
      "Ġmaximum": 4834,
      "Ġhop": 4835,
      "ĠArab": 4836,
      "ĠMem": 4837,
      "ĠMac": 4838,
      "Ġkm": 4839,
      "Ġexplore": 4840,
      "Ġcontinues": 4841,
      "Ġlargely": 4842,
      "Ġwanted": 4843,
      "Ġconflict": 4844,
      "cers": 4845,
      "Ġbow": 4846,
      "Ġgal": 4847,
      "ĠBen": 4848,
      "Ġready": 4849,
      "ĠConf": 4850,
      "Ġamounts": 4851,
      "Ġclos": 4852,
      "Ġadvantage": 4853,
      "Ġinvolves": 4854,
      "ĠFoundation": 4855,
      "If": 4856,
      "RO": 4857,
      "rating": 4858,
      "Ġhospital": 4859,
      "Ġextent": 4860,
      "Ġadvice": 4861,
      "Ġoperation": 4862,
      "Ġnutrition": 4863,
      "Ġphenomen": 4864,
      "mit": 4865,
      "Ġinternal": 4866,
      "ĠSte": 4867,
      "oviet": 4868,
      "Ġexpert": 4869,
      "Ġrisks": 4870,
      "Ġrecorded": 4871,
      "Ġcombined": 4872,
      "what": 4873,
      "As": 4874,
      "awn": 4875,
      "Ġinh": 4876,
      "ĠMi": 4877,
      "ĠNatural": 4878,
      "Ġ31": 4879,
      "ĠConstitution": 4880,
      "Ġprimarily": 4881,
      "idelines": 4882,
      "ville": 4883,
      "Ġtask": 4884,
      "iced": 4885,
      "orms": 4886,
      "Ġparties": 4887,
      "Ġexperts": 4888,
      "Ġcompleted": 4889,
      "Ġsupported": 4890,
      "Ġletters": 4891,
      "Ġlinked": 4892,
      "Ġeggs": 4893,
      "Ġexactly": 4894,
      "uit": 4895,
      "ĠElect": 4896,
      "ossible": 4897,
      "Ġremove": 4898,
      "Ġcounty": 4899,
      "Ġserver": 4900,
      "Ġcircum": 4901,
      "Ġsamples": 4902,
      "ĠUsing": 4903,
      "Ġbright": 4904,
      "Ġlatter": 4905,
      "Ġstation": 4906,
      "ĠPri": 4907,
      "Ġdecisions": 4908,
      "Ġdiscover": 4909,
      "Ġmemb": 4910,
      "Ġtopic": 4911,
      "Ġviolence": 4912,
      "Ġbed": 4913,
      "Ġwealth": 4914,
      "Ġmyth": 4915,
      "Ġmonitoring": 4916,
      "zing": 4917,
      "change": 4918,
      "ĠBi": 4919,
      "ĠJer": 4920,
      "Ġoffered": 4921,
      "Ġ45": 4922,
      "Ġgovernments": 4923,
      "Ġdirector": 4924,
      "Ġclaims": 4925,
      "ĠTreat": 4926,
      "ĠMiddle": 4927,
      "ĠNav": 4928,
      "Ġproteins": 4929,
      "Ġinstitutions": 4930,
      "Ġbegins": 4931,
      "cript": 4932,
      "Ġcore": 4933,
      "utive": 4934,
      "Ġconstitution": 4935,
      "Ġconnected": 4936,
      "Ġrelationships": 4937,
      "Ġappeared": 4938,
      "Ġpieces": 4939,
      "Ġnations": 4940,
      "Ġgames": 4941,
      "Ġconvent": 4942,
      "umber": 4943,
      "Ġraised": 4944,
      "ĠCarol": 4945,
      "Ġrecommended": 4946,
      "ĠSmith": 4947,
      "ĠMexico": 4948,
      "Ġacademic": 4949,
      "iling": 4950,
      "ĠDist": 4951,
      "ĠOp": 4952,
      "Ġ188": 4953,
      "Ġdiscovery": 4954,
      "Ġincorpor": 4955,
      "Ġ<": 4956,
      "lements": 4957,
      "ĠBible": 4958,
      "ĠLatin": 4959,
      "ĠThose": 4960,
      "ception": 4961,
      "Ġgreatest": 4962,
      "Ġcollege": 4963,
      "Ġfundamental": 4964,
      "igenous": 4965,
      "Ġbond": 4966,
      "astern": 4967,
      "ĠRad": 4968,
      "ĠRem": 4969,
      "Ġcontaining": 4970,
      "Ġroot": 4971,
      "ĠColumb": 4972,
      "rine": 4973,
      "Ġgar": 4974,
      "ĠLake": 4975,
      "ĠSea": 4976,
      "Ġmulti": 4977,
      "ĠThomas": 4978,
      "bal": 4979,
      "ki": 4980,
      "ilit": 4981,
      "ĠSuch": 4982,
      "Ġmanner": 4983,
      "Ġcenturies": 4984,
      "ructure": 4985,
      "Ġmarine": 4986,
      "Ġelection": 4987,
      "Ġdiagnosis": 4988,
      "Ġoutput": 4989,
      "Ġconcepts": 4990,
      "Ġsample": 4991,
      "What": 4992,
      "Ġadjust": 4993,
      "Ġstem": 4994,
      "Ġstars": 4995,
      "iring": 4996,
      "Ġappoint": 4997,
      "Ġjustice": 4998,
      "ĠCancer": 4999,
      "Ġoperating": 5000,
      "Ġrecognized": 5001,
      "Ġjobs": 5002,
      "ĠRussian": 5003,
      "AD": 5004,
      "inf": 5005,
      "ĠHel": 5006,
      "Ġintellig": 5007,
      "Ġgoals": 5008,
      "hesis": 5009,
      "Ġlooked": 5010,
      "Ġbiological": 5011,
      "39": 5012,
      "76": 5013,
      "pat": 5014,
      "Ġpun": 5015,
      "ancing": 5016,
      "olid": 5017,
      "ulating": 5018,
      "Ġadvanced": 5019,
      "cest": 5020,
      "ĠSou": 5021,
      "ĠCast": 5022,
      "Ġexcell": 5023,
      "elled": 5024,
      "Ġmetal": 5025,
      "Ġhousehold": 5026,
      "inating": 5027,
      "Ġsend": 5028,
      "roph": 5029,
      "ĠPsych": 5030,
      "Ġapparent": 5031,
      "Ġfigures": 5032,
      "Ġdivided": 5033,
      "ĠHenry": 5034,
      "ĠAcademy": 5035,
      "ION": 5036,
      "Ġiron": 5037,
      "ĠSoviet": 5038,
      "ĠGroup": 5039,
      "Ġotherwise": 5040,
      "Ġperman": 5041,
      "Ġunits": 5042,
      "ĠAny": 5043,
      "Ġeffectively": 5044,
      "Ġparticles": 5045,
      "Ġlands": 5046,
      "ĠAdd": 5047,
      "Ġauthority": 5048,
      "Ġban": 5049,
      "Ġinput": 5050,
      "Ġdial": 5051,
      "ĠPers": 5052,
      "resents": 5053,
      "ears": 5054,
      "Ġphase": 5055,
      "Ġvolume": 5056,
      "Ġprocedure": 5057,
      "tle": 5058,
      "enced": 5059,
      "osen": 5060,
      "ĠJud": 5061,
      "Ġallerg": 5062,
      "Ġclim": 5063,
      "Ġju": 5064,
      "Ġowners": 5065,
      "ĠTherefore": 5066,
      "Ġreducing": 5067,
      "Ġmeasured": 5068,
      "Ġexistence": 5069,
      "Ġfiles": 5070,
      "Ġfarmers": 5071,
      "pre": 5072,
      "pan": 5073,
      "works": 5074,
      "inations": 5075,
      "icit": 5076,
      "ĠBro": 5077,
      "romos": 5078,
      "ĠIndians": 5079,
      "iveness": 5080,
      "Ġabsolute": 5081,
      "atabase": 5082,
      "64": 5083,
      "ih": 5084,
      "Ġonto": 5085,
      "ĠHome": 5086,
      "esthetic": 5087,
      "Ġvast": 5088,
      "Ġprepar": 5089,
      "Ġtrig": 5090,
      "rolog": 5091,
      "Ġhappens": 5092,
      "Ġsuggested": 5093,
      "Ġbeautiful": 5094,
      "rust": 5095,
      "ship": 5096,
      "inent": 5097,
      "ĠCamb": 5098,
      "ĠJose": 5099,
      "icking": 5100,
      "Ġdistingu": 5101,
      "Ġpromot": 5102,
      "Ġauthorities": 5103,
      "poses": 5104,
      "Ġwestern": 5105,
      "Ġteeth": 5106,
      "Ġconsists": 5107,
      "Ġclasses": 5108,
      "ĠIII": 5109,
      "Ġmamm": 5110,
      "Ġorganisms": 5111,
      "Ġpromote": 5112,
      "ortunately": 5113,
      "Ġsubstant": 5114,
      "100": 5115,
      "PS": 5116,
      "iled": 5117,
      "ulum": 5118,
      "ĠPM": 5119,
      "ĠLast": 5120,
      "ieties": 5121,
      "Ġcertainly": 5122,
      "Ġagricultural": 5123,
      "CS": 5124,
      "inet": 5125,
      "Ġtherm": 5126,
      "celer": 5127,
      "ĠPet": 5128,
      "ĠPenn": 5129,
      "ibl": 5130,
      "asses": 5131,
      "Ġequival": 5132,
      "Ġmarriage": 5133,
      "Ġspiritual": 5134,
      "chers": 5135,
      "Ġsin": 5136,
      "ĠEconom": 5137,
      "Ġrepresents": 5138,
      "ĠArmy": 5139,
      "Ġinterests": 5140,
      "Ġrequirements": 5141,
      "Ġhabitat": 5142,
      ".||": 5143,
      "nic": 5144,
      "Ġtun": 5145,
      "Ġlik": 5146,
      "ĠIran": 5147,
      "Ġsetting": 5148,
      "Ġorganic": 5149,
      "ifying": 5150,
      "EL": 5151,
      "ogue": 5152,
      "aker": 5153,
      "Ġschem": 5154,
      "Ġhundreds": 5155,
      "Ġmentioned": 5156,
      "uz": 5157,
      "Ġsalt": 5158,
      "Ġyellow": 5159,
      "Ġconsult": 5160,
      "Ġtrust": 5161,
      "Ġefficiency": 5162,
      "Ġbuy": 5163,
      "Ġlooks": 5164,
      "Ġimproved": 5165,
      "Ġportion": 5166,
      "Ġstraight": 5167,
      "IL": 5168,
      "Ġaircraft": 5169,
      "stood": 5170,
      "Ġallowing": 5171,
      "Ġindicate": 5172,
      "Ġaccepted": 5173,
      "Ġinjury": 5174,
      "mp": 5175,
      "ny": 5176,
      "Ġhorm": 5177,
      "olars": 5178,
      "ĠLong": 5179,
      "Ġnotice": 5180,
      "Ġroof": 5181,
      "Ġemergency": 5182,
      "Ġencourage": 5183,
      "Ġtitle": 5184,
      "Ġtour": 5185,
      "Ġsnow": 5186,
      "Ġheight": 5187,
      "ĠFam": 5188,
      "Ġdiss": 5189,
      "Ġnewsp": 5190,
      "ĠCommittee": 5191,
      "Ġoriginally": 5192,
      "nel": 5193,
      "itud": 5194,
      "itage": 5195,
      "ĠMont": 5196,
      "ĠPower": 5197,
      "Ġitems": 5198,
      "ĠBet": 5199,
      "abb": 5200,
      "Ġshut": 5201,
      "place": 5202,
      "Ġknew": 5203,
      "Ġdisapp": 5204,
      "Ġtested": 5205,
      "Ġtried": 5206,
      "Ġplayed": 5207,
      "Ġhappened": 5208,
      "Ġdangerous": 5209,
      "Ġslightly": 5210,
      "Ġtroops": 5211,
      "ita": 5212,
      "Ġanx": 5213,
      "Ġrough": 5214,
      "unk": 5215,
      "Ġintellect": 5216,
      "Ġcommit": 5217,
      "Ġdistrict": 5218,
      "Ġtechnical": 5219,
      "Ġparticipants": 5220,
      "Ġfamiliar": 5221,
      "Ġwonder": 5222,
      "Ġdocuments": 5223,
      "Ġpollution": 5224,
      "Ġdespite": 5225,
      "osystem": 5226,
      "Ġbrief": 5227,
      "Ġfal": 5228,
      "add": 5229,
      "cyclop": 5230,
      "Ġ1998": 5231,
      "espite": 5232,
      "Ġproperly": 5233,
      "Ġrelevant": 5234,
      "ipped": 5235,
      "Ġrevolution": 5236,
      "Ġassessment": 5237,
      "Ġhit": 5238,
      "heric": 5239,
      "uster": 5240,
      "Ġkil": 5241,
      "ĠCatholic": 5242,
      "ta": 5243,
      "Ġlas": 5244,
      "Ġnit": 5245,
      "state": 5246,
      "ĠDisc": 5247,
      "Ġspecifically": 5248,
      "Ġsurpris": 5249,
      "Ġkinds": 5250,
      "Ġexperiences": 5251,
      "49": 5252,
      "ball": 5253,
      "Ġpure": 5254,
      "ĠGal": 5255,
      "Ġspl": 5256,
      "ague": 5257,
      "achuse": 5258,
      "ĠHeb": 5259,
      "Ġseek": 5260,
      "Ġprocessing": 5261,
      "Ġcontinuous": 5262,
      "Ġengineering": 5263,
      "ĠProfessor": 5264,
      "sembly": 5265,
      "tts": 5266,
      "ĠÃ": 5267,
      "Ġtiny": 5268,
      "Ġsen": 5269,
      "Ġfelt": 5270,
      "Ġleaving": 5271,
      "Ġleads": 5272,
      "ĠSpanish": 5273,
      "Ġfacilities": 5274,
      "Ġresponsibility": 5275,
      "Ġprofession": 5276,
      "going": 5277,
      "board": 5278,
      "Ġ>": 5279,
      "onic": 5280,
      "Ġfell": 5281,
      "idity": 5282,
      "otic": 5283,
      "ava": 5284,
      "clusion": 5285,
      "achusetts": 5286,
      "ras": 5287,
      "Ġdie": 5288,
      "oston": 5289,
      "Ġconcerns": 5290,
      "Ġcontrolled": 5291,
      "Ġdestroyed": 5292,
      "iated": 5293,
      "tion": 5294,
      "Ġwet": 5295,
      "Ġwww": 5296,
      "Ġfort": 5297,
      "ĠHam": 5298,
      "ĠDiv": 5299,
      "enses": 5300,
      "ĠForce": 5301,
      "Ġdescription": 5302,
      "Ġsubjects": 5303,
      "Ġconcern": 5304,
      "Ġconcerned": 5305,
      "Ġwarming": 5306,
      "Ġneighbor": 5307,
      "vis": 5308,
      "Ġfirm": 5309,
      "ĠCap": 5310,
      "Ġstored": 5311,
      "Ġattitude": 5312,
      "Ġfacts": 5313,
      "Ġnutri": 5314,
      "Ġvegetables": 5315,
      "Ġprinciple": 5316,
      "ĠFind": 5317,
      "active": 5318,
      "ĠAtt": 5319,
      "ĠOnly": 5320,
      "Ġdiscussed": 5321,
      "which": 5322,
      "Ġfrequency": 5323,
      "Ġdetailed": 5324,
      "Ġcrisis": 5325,
      "TM": 5326,
      "âĢľ": 5327,
      "ĠNature": 5328,
      "apes": 5329,
      "Ġlesson": 5330,
      "Ġmaster": 5331,
      "ĠCa": 5332,
      "ĠDise": 5333,
      "Ġ300": 5334,
      "Ġviews": 5335,
      "Ġwildlife": 5336,
      "Ġhyper": 5337,
      "rant": 5338,
      "Ġjoint": 5339,
      "Ġuniverse": 5340,
      "Ġpractical": 5341,
      "Ġfailed": 5342,
      "ocratic": 5343,
      "down": 5344,
      "ario": 5345,
      "irty": 5346,
      "Ġtwenty": 5347,
      "Ġsubsequ": 5348,
      "standing": 5349,
      "Ġpurposes": 5350,
      "Ġpaint": 5351,
      "Ġdouble": 5352,
      "Ġdynam": 5353,
      "mun": 5354,
      "ya": 5355,
      "oral": 5356,
      "ĠJack": 5357,
      "Ġsyndrome": 5358,
      "Ġrecon": 5359,
      "Ġindex": 5360,
      "Ġexpressed": 5361,
      "Ġformation": 5362,
      "Ġtrials": 5363,
      "Ġbird": 5364,
      "Ġ1980": 5365,
      "OT": 5366,
      "Ġfle": 5367,
      "Ġdaughter": 5368,
      "Ġnan": 5369,
      "Ġvul": 5370,
      "Ġrural": 5371,
      "ework": 5372,
      "ĠConn": 5373,
      "idden": 5374,
      "Ġurban": 5375,
      "Ġrapidly": 5376,
      "ĠMichael": 5377,
      "rich": 5378,
      "ategy": 5379,
      "ĠEff": 5380,
      "ĠThrough": 5381,
      "obe": 5382,
      "Ġstrategy": 5383,
      "ĠColor": 5384,
      "Ġimpacts": 5385,
      "Ġsurrounding": 5386,
      "ca": 5387,
      "lers": 5388,
      "Ġtail": 5389,
      "Ġfaster": 5390,
      "Ġarms": 5391,
      "Ġdepth": 5392,
      "Ġcapable": 5393,
      "Ġflowers": 5394,
      "Ġclosely": 5395,
      "Ġmillions": 5396,
      "aturally": 5397,
      "ĠInstead": 5398,
      "ĠMassachusetts": 5399,
      "Ġprices": 5400,
      "37": 5401,
      "Ġsounds": 5402,
      "Ġcamer": 5403,
      "Ġmos": 5404,
      "Ġnarrow": 5405,
      "Ġgall": 5406,
      "racy": 5407,
      "ĠMo": 5408,
      "ĠDespite": 5409,
      "ĠLibrary": 5410,
      "rows": 5411,
      "Ġinstall": 5412,
      "Ġapproaches": 5413,
      "Ġmanufacture": 5414,
      "Ġelectrical": 5415,
      "ss": 5416,
      "heim": 5417,
      "Ġsides": 5418,
      "Ġpump": 5419,
      "aks": 5420,
      "Ġresist": 5421,
      "Ġcalls": 5422,
      "Ġdepending": 5423,
      "Ġadvance": 5424,
      "ĠReport": 5425,
      "Ġrepeated": 5426,
      "Ġax": 5427,
      "itter": 5428,
      "iform": 5429,
      "ĠDan": 5430,
      "ĠNations": 5431,
      "Ġshared": 5432,
      "Ġcloth": 5433,
      "Ġadvoc": 5434,
      "Ġtopics": 5435,
      "Ġcritic": 5436,
      "Ġpray": 5437,
      "Ġstated": 5438,
      "ĠPeter": 5439,
      "osite": 5440,
      "pping": 5441,
      "Ġexplains": 5442,
      "Ġprotected": 5443,
      "Ġperiods": 5444,
      "Ġwalls": 5445,
      "Ġmoist": 5446,
      "44": 5447,
      "vision": 5448,
      "ini": 5449,
      "inant": 5450,
      "Ġod": 5451,
      "rot": 5452,
      "ĠIN": 5453,
      "atever": 5454,
      "Ġsignal": 5455,
      "rapy": 5456,
      "Ġsubstance": 5457,
      "AP": 5458,
      "Ġfly": 5459,
      "ĠWind": 5460,
      "Ġ36": 5461,
      "ĠWho": 5462,
      "Ġinstruction": 5463,
      "Ġsatis": 5464,
      "Ġsequence": 5465,
      "yroid": 5466,
      "press": 5467,
      "uable": 5468,
      "Ġpoet": 5469,
      "Ġregional": 5470,
      "Ġutil": 5471,
      "DF": 5472,
      "can": 5473,
      "Ġthin": 5474,
      "osm": 5475,
      "Ġhaz": 5476,
      "cium": 5477,
      "Ġorganized": 5478,
      "Ġcollected": 5479,
      "ictionary": 5480,
      "American": 5481,
      "itness": 5482,
      "Ġband": 5483,
      "ĠTimes": 5484,
      "Ġjour": 5485,
      "Ġphone": 5486,
      "Ġacceler": 5487,
      "Ġflat": 5488,
      "Ġminimum": 5489,
      "Ġreduction": 5490,
      "ĠClass": 5491,
      "Ġerror": 5492,
      "Ġpregnancy": 5493,
      "Ġhouses": 5494,
      "net": 5495,
      "rans": 5496,
      "xual": 5497,
      "ĠPlease": 5498,
      "Ġexplained": 5499,
      "Ġattacks": 5500,
      "with": 5501,
      "ania": 5502,
      "Ġexternal": 5503,
      "ĠNor": 5504,
      "ĠNorthern": 5505,
      "ĠOx": 5506,
      "Ġpotentially": 5507,
      "TS": 5508,
      "rat": 5509,
      "Ġcards": 5510,
      "Ġinject": 5511,
      "inger": 5512,
      "Ġgender": 5513,
      "ĠWord": 5514,
      "Ġcomment": 5515,
      "ĠFort": 5516,
      "ache": 5517,
      "ĠOcean": 5518,
      "Ġjur": 5519,
      "Ġblog": 5520,
      "Ġsky": 5521,
      "Ġmainly": 5522,
      "ĠStudies": 5523,
      "48": 5524,
      "ii": 5525,
      "Ã¡": 5526,
      "reed": 5527,
      "ĠIll": 5528,
      "ĠOut": 5529,
      "Ġexpensive": 5530,
      "Ġdecade": 5531,
      "Ġfloor": 5532,
      "ĠArctic": 5533,
      "Ġlaboratory": 5534,
      "Ġselected": 5535,
      "Ġcouple": 5536,
      "Al": 5537,
      "vity": 5538,
      "atform": 5539,
      "Ġnine": 5540,
      "ĠWhere": 5541,
      "Ġsuc": 5542,
      "Ġimpossible": 5543,
      "Ġtypical": 5544,
      "Ġlanguages": 5545,
      "Ġera": 5546,
      "Ġthousand": 5547,
      "Ġtraffic": 5548,
      "ka": 5549,
      "Ġcrim": 5550,
      "eline": 5551,
      "Ġunless": 5552,
      "Ġelectronic": 5553,
      "Ġbrown": 5554,
      "Ġincreasingly": 5555,
      "Ġsustainable": 5556,
      "Ġcomprehensive": 5557,
      "Ġhusband": 5558,
      "'m": 5559,
      "Ġpark": 5560,
      "Ġmist": 5561,
      "Ġshot": 5562,
      "Ġsimpl": 5563,
      "Ġfunding": 5564,
      "Ġmassive": 5565,
      "Ġdoubt": 5566,
      "olf": 5567,
      "ĠChic": 5568,
      "Ġagency": 5569,
      "ĠRussia": 5570,
      "Ġobtained": 5571,
      "eal": 5572,
      "Ġflex": 5573,
      "Ġvital": 5574,
      "Ġcontribute": 5575,
      "Ġcolors": 5576,
      "Ġrefers": 5577,
      "Ġfeeling": 5578,
      "ĠEmpire": 5579,
      "Ġfossil": 5580,
      "Ġliquid": 5581,
      "liam": 5582,
      "Ã¶": 5583,
      "stream": 5584,
      "ĠStep": 5585,
      "ĠVict": 5586,
      "ĠExpl": 5587,
      "Ġ1970": 5588,
      "iate": 5589,
      "ooth": 5590,
      "Ġplastic": 5591,
      "ĠStreet": 5592,
      "inson": 5593,
      "Ġvisible": 5594,
      "Ġprecise": 5595,
      "Ġcrops": 5596,
      "unteers": 5597,
      "46": 5598,
      "tra": 5599,
      "ye": 5600,
      "inic": 5601,
      "alian": 5602,
      "Ġdut": 5603,
      "ifies": 5604,
      "Ġweap": 5605,
      "Ġbutter": 5606,
      "Ġclosed": 5607,
      "Ġlandsc": 5608,
      "Ġnormally": 5609,
      "kes": 5610,
      "Ġbud": 5611,
      "ĠClick": 5612,
      "âĢĿ,": 5613,
      "Ġformal": 5614,
      "Ġ1995": 5615,
      "ĠÂ©": 5616,
      "Ġprocedures": 5617,
      "Ġsector": 5618,
      "ĠFigure": 5619,
      "reci": 5620,
      "rob": 5621,
      "ĠTor": 5622,
      "ective": 5623,
      "Ġselection": 5624,
      "Ġrub": 5625,
      "ogle": 5626,
      "ĠBefore": 5627,
      "Ġphotograph": 5628,
      "Ġpictures": 5629,
      "Ġexperiments": 5630,
      "lar": 5631,
      "Ġgrown": 5632,
      "ima": 5633,
      "Ġabuse": 5634,
      "ansion": 5635,
      "Ġtrain": 5636,
      "Ġfounded": 5637,
      "Ġtreatments": 5638,
      "Ġsolutions": 5639,
      "Ġissued": 5640,
      "Ġlimits": 5641,
      "Ġkeeping": 5642,
      "Ġobservations": 5643,
      "Ġdomestic": 5644,
      "Ġsatell": 5645,
      "ĠGlobal": 5646,
      "point": 5647,
      "war": 5648,
      "urd": 5649,
      "Ġprohib": 5650,
      "ĠEnd": 5651,
      "Ġawareness": 5652,
      "Ġaccompl": 5653,
      "ĠRichard": 5654,
      "Ġcandid": 5655,
      "Ġoption": 5656,
      "Ġpra": 5657,
      "Ġgun": 5658,
      "Ġancest": 5659,
      "Ġunlike": 5660,
      "Ġnoise": 5661,
      "Ġcomputers": 5662,
      "Ġappearance": 5663,
      "Ġanswers": 5664,
      "Ġearthqu": 5665,
      "Ġemotional": 5666,
      "zen": 5667,
      "ĠMer": 5668,
      "ĠDel": 5669,
      "Ġperspective": 5670,
      "Ġideal": 5671,
      "Ġeastern": 5672,
      "500": 5673,
      "An": 5674,
      "Ġhem": 5675,
      "ĠEth": 5676,
      "Ġunderstood": 5677,
      "Ġlatest": 5678,
      "IA": 5679,
      "eper": 5680,
      "normal": 5681,
      "Ġmath": 5682,
      "ĠData": 5683,
      "Ġshar": 5684,
      "Ġshift": 5685,
      "Ġdoctors": 5686,
      "Ġmedic": 5687,
      "Ġpossibility": 5688,
      "Ġfocused": 5689,
      "Ġapart": 5690,
      "col": 5691,
      "rete": 5692,
      "Ġtow": 5693,
      "Ġnarr": 5694,
      "iest": 5695,
      "Ġacts": 5696,
      "Ġhelping": 5697,
      "Ġcareer": 5698,
      "Ġmuscles": 5699,
      "Ġlaun": 5700,
      "Ġmountain": 5701,
      "Ġmolecules": 5702,
      "Ġpretty": 5703,
      ".'": 5704,
      "inter": 5705,
      "inity": 5706,
      "Ġdust": 5707,
      "Ġreject": 5708,
      "Ġlies": 5709,
      "olve": 5710,
      "ĠMa": 5711,
      "umin": 5712,
      "agues": 5713,
      "Ġsupplies": 5714,
      "Ġgoods": 5715,
      "Ġparalle": 5716,
      "ognitive": 5717,
      "Ġfluid": 5718,
      "pidem": 5719,
      "Ġadopted": 5720,
      "Ġopinion": 5721,
      "Ġbones": 5722,
      "ĠAD": 5723,
      "ĠHall": 5724,
      "ivation": 5725,
      "ĠGet": 5726,
      "ĠOh": 5727,
      "oking": 5728,
      "Ġrail": 5729,
      "Ġrequest": 5730,
      "Ġgreatly": 5731,
      "Ġpolitics": 5732,
      "Ġsurvival": 5733,
      "Ġdogs": 5734,
      "Ġstruggle": 5735,
      "Ġgalax": 5736,
      "ĠDar": 5737,
      "acher": 5738,
      "ĠLab": 5739,
      "ĠStat": 5740,
      "Ġinfected": 5741,
      "Ġrecognize": 5742,
      "Ġslowly": 5743,
      "Ġhydrogen": 5744,
      "Ġastron": 5745,
      "Ġexcellent": 5746,
      "liament": 5747,
      "isters": 5748,
      "Ġliver": 5749,
      "ĠId": 5750,
      "Ġstock": 5751,
      "riculum": 5752,
      "Ġregist": 5753,
      "31": 5754,
      "pet": 5755,
      "Ġlov": 5756,
      "Ġstro": 5757,
      "ĠMake": 5758,
      "ĠBoston": 5759,
      "Ġadequ": 5760,
      "ĠKnow": 5761,
      "Ġindeed": 5762,
      "Ġproducing": 5763,
      "Ġdecline": 5764,
      "Ġextract": 5765,
      "Ġ1997": 5766,
      "Ġinvestment": 5767,
      "Ġreplaced": 5768,
      "Ġcomponent": 5769,
      "Ġdiscrimination": 5770,
      "You": 5771,
      "Ġfold": 5772,
      "Ġing": 5773,
      "ĠTer": 5774,
      "ĠSciences": 5775,
      "oto": 5776,
      "abil": 5777,
      "ĠDi": 5778,
      "Ġrelation": 5779,
      "Ġobl": 5780,
      "Ġbroken": 5781,
      "Ġsurvive": 5782,
      "ĠSouthern": 5783,
      "craft": 5784,
      "Ġtaught": 5785,
      "Ġarrest": 5786,
      "Ġtwice": 5787,
      "Ġattached": 5788,
      "ropical": 5789,
      "Ġformat": 5790,
      "Ġmarried": 5791,
      "Ġkidney": 5792,
      "77": 5793,
      "Ġâ": 5794,
      "eria": 5795,
      "Ġsick": 5796,
      "Ġcart": 5797,
      "orph": 5798,
      "Ġnaturally": 5799,
      "ston": 5800,
      "ĠAp": 5801,
      "ĠGold": 5802,
      "acters": 5803,
      "Ġroll": 5804,
      "Ġremaining": 5805,
      "Ġprotocol": 5806,
      "Ġpossess": 5807,
      "Ġopened": 5808,
      "Ġrepresented": 5809,
      "ING": 5810,
      "Ġintellectual": 5811,
      "Ġvulner": 5812,
      "HO": 5813,
      "Ġdream": 5814,
      "vert": 5815,
      "ĠPop": 5816,
      "Ġaren": 5817,
      "Ġchann": 5818,
      "oster": 5819,
      "Ġworldwide": 5820,
      "Ġresulted": 5821,
      "Ġfollows": 5822,
      "Ġpossibly": 5823,
      "Ġelectron": 5824,
      "Ġentirely": 5825,
      "Ġadministration": 5826,
      "ĠColumbia": 5827,
      "dden": 5828,
      "Ġtheories": 5829,
      "Ġmoon": 5830,
      "ĠGrand": 5831,
      "ĠAnn": 5832,
      "ĠAdminist": 5833,
      "azine": 5834,
      "Ġaffects": 5835,
      "Ġjoined": 5836,
      "ĠChev": 5837,
      "Ġconsequences": 5838,
      "Ġbatter": 5839,
      "Ġinhib": 5840,
      "Ġdiversity": 5841,
      "Ġdatabase": 5842,
      "ĠExt": 5843,
      "anged": 5844,
      "Ġdefe": 5845,
      "Ġmovements": 5846,
      "Ġnecessarily": 5847,
      "ĠBoard": 5848,
      "Ġconcentration": 5849,
      "05": 5850,
      "ses": 5851,
      "Ġaesthetic": 5852,
      "Ġgone": 5853,
      "ĠBre": 5854,
      "emia": 5855,
      "ĠâĢ¦": 5856,
      "luding": 5857,
      "Ġmedications": 5858,
      "Ġprompt": 5859,
      "Ġhoriz": 5860,
      "?âĢĿ": 5861,
      "Ġmuseum": 5862,
      "Ġdiam": 5863,
      "ĠMad": 5864,
      "ĠProp": 5865,
      "Ġdiscipl": 5866,
      "Ġprem": 5867,
      "Ġflag": 5868,
      "Ġdepends": 5869,
      "Ġlaunch": 5870,
      "ĠSupp": 5871,
      "Ġharvest": 5872,
      "Ġscholars": 5873,
      "ST": 5874,
      "Ġrid": 5875,
      "Ġrecip": 5876,
      "teen": 5877,
      "Ġsupposed": 5878,
      "Ġmedium": 5879,
      "Ġautism": 5880,
      "ĠAddition": 5881,
      "ĠSecurity": 5882,
      "ĠFrank": 5883,
      "RC": 5884,
      "SA": 5885,
      "Ġaf": 5886,
      "ĠCult": 5887,
      "ureau": 5888,
      "Ġflight": 5889,
      "ercury": 5890,
      "Ġgrass": 5891,
      "Ġecosystem": 5892,
      "Ġagriculture": 5893,
      "Ġinstrument": 5894,
      "ĠDesign": 5895,
      "Ġinflamm": 5896,
      "Ġcircumst": 5897,
      "ĠCarolina": 5898,
      "CD": 5899,
      "Ġaw": 5900,
      "inction": 5901,
      "Ġpull": 5902,
      "ada": 5903,
      "rier": 5904,
      "ighter": 5905,
      "Ġrecy": 5906,
      "Ġagencies": 5907,
      "ĠExper": 5908,
      "Ġargument": 5909,
      "Ġpregnant": 5910,
      "Ġfertil": 5911,
      "47": 5912,
      "hist": 5913,
      "Ġcup": 5914,
      "Ġbear": 5915,
      "ĠAst": 5916,
      "ĠDet": 5917,
      "Ġspend": 5918,
      "Ġsubs": 5919,
      "Ġgrad": 5920,
      "Ġcrew": 5921,
      "Ġimmun": 5922,
      "Ġmarked": 5923,
      "Ġrivers": 5924,
      "ĠGuide": 5925,
      "Ġmechanism": 5926,
      "Ġleadership": 5927,
      "Ġenemy": 5928,
      "Ġequivalent": 5929,
      "Ġtons": 5930,
      "Ġwire": 5931,
      "Ġborder": 5932,
      "Ġmort": 5933,
      "Ġlibrary": 5934,
      "etics": 5935,
      "Ġsudden": 5936,
      "Ġadding": 5937,
      "Ġpreserv": 5938,
      "Ġtransmission": 5939,
      "field": 5940,
      "ĠSign": 5941,
      "Ġplatform": 5942,
      "agers": 5943,
      "Ġextensive": 5944,
      "Ġ1993": 5945,
      "Ġsuccessfully": 5946,
      "Ġindicates": 5947,
      "ascular": 5948,
      "Ġhorse": 5949,
      "ĠJoseph": 5950,
      "ĠHebrew": 5951,
      "CO": 5952,
      "oned": 5953,
      "orrow": 5954,
      "ĠTem": 5955,
      "Ġmanage": 5956,
      "ĠRef": 5957,
      "There": 5958,
      "example": 5959,
      "Ġelected": 5960,
      "ĠEarly": 5961,
      "Ġemployment": 5962,
      "ĠParis": 5963,
      "55": 5964,
      "bur": 5965,
      "born": 5966,
      "een": 5967,
      "organ": 5968,
      "oln": 5969,
      "ĠBC": 5970,
      "ĠBa": 5971,
      "Ġlect": 5972,
      "Ġchildhood": 5973,
      "Ġdeliver": 5974,
      "Ġsentence": 5975,
      "inn": 5976,
      "asure": 5977,
      "ĠMu": 5978,
      "Ġenforce": 5979,
      "Ġincl": 5980,
      "Ġzone": 5981,
      "Ġintroduction": 5982,
      "Ġimmediate": 5983,
      "Ġtouch": 5984,
      "ĠMiG": 5985,
      "Ġmembrane": 5986,
      "free": 5987,
      "mas": 5988,
      "run": 5989,
      "rary": 5990,
      "under": 5991,
      "ocracy": 5992,
      "oven": 5993,
      "Ġminim": 5994,
      "Ġinsurance": 5995,
      "Ġbiology": 5996,
      "Ġlisted": 5997,
      "Ġdebate": 5998,
      "Ġindependence": 5999,
      "Ġphysician": 6000,
      "ĠRevolution": 6001,
      "Ġphilosophy": 6002,
      "Ġcatch": 6003,
      "ĠSym": 6004,
      "Ġstring": 6005,
      "ĠWil": 6006,
      "Ġshel": 6007,
      "Ġplaying": 6008,
      "----": 6009,
      "Ġmobile": 6010,
      "ĠVietnam": 6011,
      "Ġaccurate": 6012,
      "sen": 6013,
      "Ġmix": 6014,
      "ione": 6015,
      "Ġchapter": 6016,
      "Ġresidents": 6017,
      "ĠStar": 6018,
      "Ġ500": 6019,
      "ĠEncyclop": 6020,
      "ipping": 6021,
      "Ġmoral": 6022,
      "Ġrevealed": 6023,
      "Ġconventional": 6024,
      "34": 6025,
      "kins": 6026,
      "last": 6027,
      "long": 6028,
      "Ġinher": 6029,
      "ĠWhe": 6030,
      "abled": 6031,
      "ĠFact": 6032,
      "ĠThree": 6033,
      "Ġunknown": 6034,
      "ĠVis": 6035,
      "Ġphr": 6036,
      "anguage": 6037,
      "apping": 6038,
      "Ġlayers": 6039,
      "ĠControl": 6040,
      "Ġforests": 6041,
      "ĠLearning": 6042,
      "Ġsituations": 6043,
      "bing": 6044,
      "body": 6045,
      "ĠTime": 6046,
      "ĠAri": 6047,
      "throp": 6048,
      "using": 6049,
      "osph": 6050,
      "ĠOF": 6051,
      "Ġimper": 6052,
      "Ġgenerate": 6053,
      "Ġimmig": 6054,
      "Ġdescribes": 6055,
      "Ġ1960": 6056,
      "ĠChicago": 6057,
      "Ġindu": 6058,
      "leg": 6059,
      "Ġforth": 6060,
      "ĠHave": 6061,
      "Ġraise": 6062,
      "Ġextended": 6063,
      "Ġentered": 6064,
      "ĠLeg": 6065,
      "Ġcalcium": 6066,
      "ĠAmong": 6067,
      "ĠPeace": 6068,
      "Ġpermanent": 6069,
      "88": 6070,
      "eor": 6071,
      "Ġpestic": 6072,
      "ĠTop": 6073,
      "Ġnone": 6074,
      "cel": 6075,
      "ami": 6076,
      "Ġchick": 6077,
      "ĠThough": 6078,
      "ĠVit": 6079,
      "Ġoccasion": 6080,
      "Ġcharacters": 6081,
      "Ġnegot": 6082,
      "Ġroute": 6083,
      "DP": 6084,
      "avery": 6085,
      "gments": 6086,
      "yal": 6087,
      "Ġwave": 6088,
      "esis": 6089,
      "irds": 6090,
      "ĠFour": 6091,
      "Ġages": 6092,
      "Ġassistance": 6093,
      "vironments": 6094,
      "Ġinsp": 6095,
      "Ġsensitive": 6096,
      "ĠCorps": 6097,
      "Ġhypot": 6098,
      "stein": 6099,
      "ĠScientists": 6100,
      "called": 6101,
      "eenth": 6102,
      "yright": 6103,
      "ora": 6104,
      "rays": 6105,
      "ĠPo": 6106,
      "ĠFollow": 6107,
      "Ġvaluable": 6108,
      "Ġlisten": 6109,
      "Ġpowers": 6110,
      "ĠSection": 6111,
      "Ġcomfort": 6112,
      "ĠFree": 6113,
      "Ġworse": 6114,
      "Ġarts": 6115,
      "Ġhelpful": 6116,
      "venue": 6117,
      "hips": 6118,
      "Ġmatters": 6119,
      "Ġspeaking": 6120,
      "Ġelev": 6121,
      "Ġtells": 6122,
      "ioxide": 6123,
      "hand": 6124,
      "path": 6125,
      "heast": 6126,
      "rey": 6127,
      "Ġmand": 6128,
      "Ġtoler": 6129,
      "ĠSol": 6130,
      "ĠMel": 6131,
      "ocation": 6132,
      "Ġusage": 6133,
      "Ġclick": 6134,
      "ĠVen": 6135,
      "inking": 6136,
      "Ġmetab": 6137,
      "Ġfewer": 6138,
      "Ġmeasurements": 6139,
      "Ġdecrease": 6140,
      "ĠNetwork": 6141,
      "95": 6142,
      "cher": 6143,
      "ãģ": 6144,
      "iner": 6145,
      "Ġsections": 6146,
      "Ġble": 6147,
      "osh": 6148,
      "Ġchosen": 6149,
      "Ġguidelines": 6150,
      "ĠUSA": 6151,
      "Ġprevention": 6152,
      "Ġvessels": 6153,
      "ĠKorea": 6154,
      "Ġfalse": 6155,
      "po": 6156,
      "ĠAgency": 6157,
      "ceived": 6158,
      "Ġorient": 6159,
      "Ġneither": 6160,
      "Ġmyster": 6161,
      "ymph": 6162,
      "ĠParty": 6163,
      "aska": 6164,
      "Ġframe": 6165,
      "Ġsoldiers": 6166,
      "Ġvoice": 6167,
      "03": 6168,
      "fall": 6169,
      "Äģ": 6170,
      "ala": 6171,
      "Ġgather": 6172,
      "othe": 6173,
      "ĠWik": 6174,
      "ĠGard": 6175,
      "ĠLu": 6176,
      "Ġsomewhat": 6177,
      "Ġexpansion": 6178,
      "Ġfacilit": 6179,
      "Ġgrew": 6180,
      "ĠGoogle": 6181,
      "ĠÂ·": 6182,
      "Ġingred": 6183,
      "06": 6184,
      "Ã¼": 6185,
      "Ġille": 6186,
      "erals": 6187,
      "Ġsail": 6188,
      "Ġfilled": 6189,
      "Ġinner": 6190,
      "oples": 6191,
      "ĠWall": 6192,
      "Ġseed": 6193,
      "eck": 6194,
      "ipal": 6195,
      "Ġappreci": 6196,
      "Ġscene": 6197,
      "Ġdefend": 6198,
      "Ġreaders": 6199,
      "Ġstudying": 6200,
      "Ġsuffer": 6201,
      "Ġinteraction": 6202,
      "ceeded": 6203,
      "Ġadministr": 6204,
      "Ġhonor": 6205,
      "ĠDirector": 6206,
      "ĠFrancisc": 6207,
      "such": 6208,
      "icide": 6209,
      "Ġnerv": 6210,
      "ĠSaf": 6211,
      "Ġreform": 6212,
      "iodiversity": 6213,
      "Ġcolleagues": 6214,
      "Ġregularly": 6215,
      "Ġderived": 6216,
      "Ġcopyright": 6217,
      "Ġinsects": 6218,
      "ĠForest": 6219,
      "Ġexplanation": 6220,
      ":||": 6221,
      "asks": 6222,
      "omach": 6223,
      "ĠEc": 6224,
      "anta": 6225,
      "ĠLand": 6226,
      "ĠLittle": 6227,
      "phone": 6228,
      "Ġremote": 6229,
      "Ġminute": 6230,
      "Ġ1994": 6231,
      "comes": 6232,
      "Ġopening": 6233,
      "Ġemployees": 6234,
      "Ġprepare": 6235,
      "ĠSpecial": 6236,
      "ĠAlexander": 6237,
      "Ġgirls": 6238,
      "Ġterritory": 6239,
      ".âĢĻ": 6240,
      "Ar": 6241,
      "ga": 6242,
      "Ġliability": 6243,
      "Ġmanaged": 6244,
      "Ġ32": 6245,
      "Ġremind": 6246,
      "Ġemployed": 6247,
      "Ġframework": 6248,
      "ĠCurrent": 6249,
      "heimer": 6250,
      "02": 6251,
      "no": 6252,
      "oir": 6253,
      "zil": 6254,
      "anda": 6255,
      "Ġdisaster": 6256,
      "ilding": 6257,
      "Ġcommitted": 6258,
      "ificial": 6259,
      "Ġdefine": 6260,
      "exp": 6261,
      "Ġexplo": 6262,
      "Ġcounsel": 6263,
      "Ġmalaria": 6264,
      "ĠIrish": 6265,
      "xts": 6266,
      "rolet": 6267,
      "ulin": 6268,
      "ĠMP": 6269,
      "Ġchain": 6270,
      "Ġinterview": 6271,
      "Ġcontrols": 6272,
      "ĠStudy": 6273,
      "Ġfishing": 6274,
      "Ġagreement": 6275,
      "Ġarrived": 6276,
      "LE": 6277,
      "ĠPan": 6278,
      "ĠRome": 6279,
      "Ġchromos": 6280,
      "anging": 6281,
      "Ġacres": 6282,
      "Ġsets": 6283,
      "Ġ75": 6284,
      "Ġ1992": 6285,
      "Ġcorpor": 6286,
      "Ġparam": 6287,
      "ĠGeorg": 6288,
      "Ġclaimed": 6289,
      "Ġjoin": 6290,
      "wing": 6291,
      "Ġtips": 6292,
      "rovers": 6293,
      "ensions": 6294,
      "ĠChapter": 6295,
      "Ġamb": 6296,
      "Ġdefense": 6297,
      "ĠSecret": 6298,
      "Ġachieved": 6299,
      "Ġtalking": 6300,
      "99": 6301,
      "Is": 6302,
      "OU": 6303,
      "Ġpig": 6304,
      "Ġfasc": 6305,
      "ĠIV": 6306,
      "ĠBank": 6307,
      "ĠFund": 6308,
      "ĠEr": 6309,
      "Ġunus": 6310,
      "Ġoutl": 6311,
      "Ġnucle": 6312,
      "rastructure": 6313,
      "Ġcarrying": 6314,
      "itudes": 6315,
      "Ġbudget": 6316,
      "gs": 6317,
      "pass": 6318,
      "arant": 6319,
      "Ġdrought": 6320,
      "Ġthor": 6321,
      "ibilities": 6322,
      "Ġmanip": 6323,
      "Ġsurf": 6324,
      "Ġexamine": 6325,
      "lishing": 6326,
      "Ġresponses": 6327,
      "Ġcompetition": 6328,
      "ĠPortug": 6329,
      "?\"": 6330,
      "Ġaward": 6331,
      "alysis": 6332,
      "Ġlit": 6333,
      "ĠSand": 6334,
      "Ġneck": 6335,
      "Ġenvironments": 6336,
      "Ġsecure": 6337,
      "Ġrising": 6338,
      "Ġphysics": 6339,
      "ployment": 6340,
      "Ġinstitution": 6341,
      "Ġfighting": 6342,
      "Ġgranted": 6343,
      "gon": 6344,
      "Ġsan": 6345,
      "ican": 6346,
      "ĠAff": 6347,
      "Ġuns": 6348,
      "Ġtaxes": 6349,
      "Ġmessages": 6350,
      "Ġmerely": 6351,
      "01": 6352,
      "66": 6353,
      "Ġwish": 6354,
      "ĠCamp": 6355,
      "igan": 6356,
      "Ġprove": 6357,
      "ĠHaw": 6358,
      "ĠRoyal": 6359,
      "ĠNative": 6360,
      "ĠVer": 6361,
      "Ġoverl": 6362,
      "cling": 6363,
      "Ġafford": 6364,
      "incoln": 6365,
      "Ġdeaths": 6366,
      "ĠResearchers": 6367,
      "Ġdivision": 6368,
      "Ġmechanisms": 6369,
      "ĠAtlantic": 6370,
      "ĠMartin": 6371,
      "ctive": 6372,
      "Ġunable": 6373,
      "Ġrecovery": 6374,
      "Ġattend": 6375,
      "Ġdirected": 6376,
      "Ġengage": 6377,
      "Ġcircle": 6378,
      "Ġconsumers": 6379,
      "Ġdemonstrated": 6380,
      "Ġconstructed": 6381,
      "He": 6382,
      "burg": 6383,
      "orous": 6384,
      "icks": 6385,
      "Ġtooth": 6386,
      "Ġdioxide": 6387,
      "ĠCard": 6388,
      "Ġstret": 6389,
      "Ġstomach": 6390,
      "estine": 6391,
      "Ġends": 6392,
      "Ġagreed": 6393,
      "Ġremark": 6394,
      "Ġthoughts": 6395,
      "Ġdelay": 6396,
      "Ġparticipate": 6397,
      "Ġsuperior": 6398,
      "reland": 6399,
      "Ġsight": 6400,
      "itual": 6401,
      "ĠAS": 6402,
      "that": 6403,
      "Ġglass": 6404,
      "Ġcarefully": 6405,
      "ĠEngine": 6406,
      "Ġopposite": 6407,
      "Ġhappy": 6408,
      "ĠConservation": 6409,
      "ĠManagement": 6410,
      "Ġinterpre": 6411,
      "Ġobtain": 6412,
      "ĠFinally": 6413,
      "Ġcontemporary": 6414,
      "Ġcriminal": 6415,
      "ĠVictor": 6416,
      "74": 6417,
      "cription": 6418,
      "Ġwasn": 6419,
      "Ġwear": 6420,
      "Ġcomposition": 6421,
      "Ġdoor": 6422,
      "Ġagents": 6423,
      "Ġinterf": 6424,
      "Ġmedication": 6425,
      "Ġeditor": 6426,
      "Ġcars": 6427,
      "Ġgenerated": 6428,
      "Ġsuffering": 6429,
      "ochond": 6430,
      "hyth": 6431,
      "cribed": 6432,
      "Ġlaunched": 6433,
      "power": 6434,
      "Ġbread": 6435,
      "Ġlose": 6436,
      "ĠIreland": 6437,
      "ĠCy": 6438,
      "ĠCat": 6439,
      "Ġstorm": 6440,
      "ĠDu": 6441,
      "ĠDou": 6442,
      "Ġneut": 6443,
      "outs": 6444,
      "plant": 6445,
      "Ġdecide": 6446,
      "Ġinvent": 6447,
      "Ġintervention": 6448,
      "Ġshell": 6449,
      "Ġgenerations": 6450,
      "Ġinvolving": 6451,
      "Ġerr": 6452,
      "Ġdeclared": 6453,
      "Ġcomparison": 6454,
      "Ġdollars": 6455,
      "Ġvictims": 6456,
      "73": 6457,
      "real": 6458,
      "olit": 6459,
      "ĠMS": 6460,
      "Ġcompens": 6461,
      "Ġconscious": 6462,
      "erman": 6463,
      "prise": 6464,
      "Ġannounced": 6465,
      "Ġinstruments": 6466,
      "Ġenhance": 6467,
      "Ġdedicated": 6468,
      "Ġcloser": 6469,
      "Ġcircumstances": 6470,
      "HA": 6471,
      "New": 6472,
      "Ġalg": 6473,
      "Ġexchange": 6474,
      "umps": 6475,
      "peror": 6476,
      "Ġdose": 6477,
      "Ġregime": 6478,
      "Ġacids": 6479,
      "Ġcourts": 6480,
      "Ġsupports": 6481,
      "Ġpassage": 6482,
      "Ġrestrict": 6483,
      "Ġnearby": 6484,
      "Ġswim": 6485,
      "Ġofficers": 6486,
      "ĠAustralian": 6487,
      "Ġped": 6488,
      "Ġfract": 6489,
      "Ġlake": 6490,
      "ĠWood": 6491,
      "Ġinches": 6492,
      "Ġmanif": 6493,
      "Ġaccum": 6494,
      "Ġregulations": 6495,
      "Ġfoundation": 6496,
      "Ġwriter": 6497,
      "Ġsecondary": 6498,
      "Ġturns": 6499,
      "ĠScott": 6500,
      "ĠIslamic": 6501,
      "Ġvehicle": 6502,
      "89": 6503,
      "OL": 6504,
      "Ġwants": 6505,
      "ĠSat": 6506,
      "raction": 6507,
      "Ġsharing": 6508,
      "Ġarter": 6509,
      "ĠKar": 6510,
      "Ġpublication": 6511,
      "Ġstands": 6512,
      "ĠResources": 6513,
      "espread": 6514,
      "Ġengaged": 6515,
      "Ġruns": 6516,
      "Ġdrawn": 6517,
      "Ġdifficulty": 6518,
      "Ġnetworks": 6519,
      "Ġreactions": 6520,
      "Ġinjuries": 6521,
      "hma": 6522,
      "Ġaqu": 6523,
      "Ġsell": 6524,
      "Ġyield": 6525,
      "ĠList": 6526,
      "Ġspin": 6527,
      "Ġsports": 6528,
      "Ġintake": 6529,
      "Ġsole": 6530,
      "ĠItaly": 6531,
      "Ġconserv": 6532,
      "Ġregul": 6533,
      "Ġmode": 6534,
      "Ġsignals": 6535,
      "Ġwriters": 6536,
      "Ġstanding": 6537,
      "ĠOrig": 6538,
      "Ġdriving": 6539,
      "scale": 6540,
      "while": 6541,
      "Ġembry": 6542,
      "Ġtumor": 6543,
      "ĠCopyright": 6544,
      "ĠWildlife": 6545,
      "Ġparallel": 6546,
      "zed": 6547,
      "ols": 6548,
      "ĠSever": 6549,
      "eters": 6550,
      "ĠWrit": 6551,
      "ĠNat": 6552,
      "ĠLincoln": 6553,
      "Ġabund": 6554,
      "ĠItalian": 6555,
      "Ġsubm": 6556,
      "Ġelections": 6557,
      "Ġholding": 6558,
      "ĠPolit": 6559,
      "gent": 6560,
      "gov": 6561,
      "nger": 6562,
      "ena": 6563,
      "Ġepidem": 6564,
      "ĠTim": 6565,
      "ĠSup": 6566,
      "ĠMah": 6567,
      "ifts": 6568,
      "ĠLess": 6569,
      "ĠUt": 6570,
      "ansas": 6571,
      "Ġcomposed": 6572,
      "Ġcloud": 6573,
      "bert": 6574,
      "Ġevil": 6575,
      "arsh": 6576,
      "Ġcurriculum": 6577,
      "Ġmatch": 6578,
      "Ġphoto": 6579,
      "ĠAgricult": 6580,
      "ĠBrazil": 6581,
      "ĠSometimes": 6582,
      ".]": 6583,
      "79": 6584,
      "bec": 6585,
      "rants": 6586,
      "Ġtall": 6587,
      "Ġath": 6588,
      "indu": 6589,
      "Ġles": 6590,
      "struct": 6591,
      "quit": 6592,
      "Ġships": 6593,
      "Ġsigned": 6594,
      "ĠClimate": 6595,
      "Ġimproving": 6596,
      "Ġseemed": 6597,
      "IDS": 6598,
      "ĠAvoid": 6599,
      "html": 6600,
      "IG": 6601,
      "cons": 6602,
      "Ġcoc": 6603,
      "Ġnob": 6604,
      "irt": 6605,
      "ading": 6606,
      "ĠBig": 6607,
      "Ġyounger": 6608,
      "Ġcomments": 6609,
      "ĠRom": 6610,
      "Ġenable": 6611,
      "agon": 6612,
      "Ġtexts": 6613,
      "Ġcenters": 6614,
      "Ġjudge": 6615,
      "Ġcaptured": 6616,
      "Ġarrange": 6617,
      "ĠOxford": 6618,
      "ait": 6619,
      "Ġtal": 6620,
      "ester": 6621,
      "esity": 6622,
      "roat": 6623,
      "Ġwhatever": 6624,
      "Ġcontained": 6625,
      "Ġunion": 6626,
      "ĠKh": 6627,
      "Ġdesire": 6628,
      "ifications": 6629,
      "Ġlocations": 6630,
      "ashion": 6631,
      "Ġoperate": 6632,
      "Ġdestruction": 6633,
      "ourage": 6634,
      "Ġfruits": 6635,
      "Ġethnic": 6636,
      "ĠColorado": 6637,
      "72": 6638,
      "la": 6639,
      "Ġwel": 6640,
      "Ġwaves": 6641,
      "utch": 6642,
      "otes": 6643,
      "erent": 6644,
      "earing": 6645,
      "agn": 6646,
      "Ġdisch": 6647,
      "Ġtransition": 6648,
      "Ġcombat": 6649,
      "Ġparticipation": 6650,
      "Ġaccounts": 6651,
      "athe": 6652,
      "Ġmild": 6653,
      "Ġmixed": 6654,
      "lets": 6655,
      "ĠTake": 6656,
      "imens": 6657,
      "Ġstreet": 6658,
      "aded": 6659,
      "Ġseeds": 6660,
      "igned": 6661,
      "icted": 6662,
      "Ġestimate": 6663,
      "Ġvector": 6664,
      "Ġcultures": 6665,
      "Ġsignificance": 6666,
      "ĠCoast": 6667,
      "Ġlabel": 6668,
      "Ġrarely": 6669,
      "Ġsweet": 6670,
      "Ġsacr": 6671,
      "Ġmedicines": 6672,
      "85": 6673,
      "Ph": 6674,
      "ĠAM": 6675,
      "Ġcontrovers": 6676,
      "Ġcompounds": 6677,
      "Ġresolution": 6678,
      "Ġrocks": 6679,
      "Ġlessons": 6680,
      "Ġguarant": 6681,
      "Ġvaccine": 6682,
      "flow": 6683,
      "Ġtaste": 6684,
      "Ġcert": 6685,
      "Ġpush": 6686,
      "stone": 6687,
      "usal": 6688,
      "ĠLow": 6689,
      "Ġwilling": 6690,
      "Ġ400": 6691,
      "Ġproduces": 6692,
      "Ġmolecular": 6693,
      "ĠObama": 6694,
      "Ġwalking": 6695,
      "ĠFamily": 6696,
      "Ġlaser": 6697,
      "gu": 6698,
      "Ġwitness": 6699,
      "Ġfixed": 6700,
      "icians": 6701,
      "ĠCre": 6702,
      "ĠChem": 6703,
      "irth": 6704,
      "Ġorb": 6705,
      "ĠFe": 6706,
      "Ġpoison": 6707,
      "Ġsupplement": 6708,
      "ĠAlz": 6709,
      "Ġgrade": 6710,
      "ĠConvention": 6711,
      "Ġslaves": 6712,
      "ediatric": 6713,
      "Ġhistoric": 6714,
      "Ġwindow": 6715,
      "Ġdigest": 6716,
      "Ġvehicles": 6717,
      "Ġanxiety": 6718,
      "medi": 6719,
      "Ġsought": 6720,
      "orter": 6721,
      "Ġinternet": 6722,
      "Ġbeings": 6723,
      "ags": 6724,
      "inding": 6725,
      "Ġmountains": 6726,
      "Ġaudio": 6727,
      "Ġcorner": 6728,
      "ĠMuslims": 6729,
      "zyme": 6730,
      "65": 6731,
      "ded": 6732,
      "mary": 6733,
      "Ġfill": 6734,
      "leton": 6735,
      "Ġprev": 6736,
      "ounded": 6737,
      "Ġcommunicate": 6738,
      "Ġlegs": 6739,
      "Ġholds": 6740,
      "Ġstrike": 6741,
      "Ġantibiot": 6742,
      "43": 6743,
      "IP": 6744,
      "Ġaer": 6745,
      "Ġlie": 6746,
      "ocy": 6747,
      "Ġ1950": 6748,
      "Ġknows": 6749,
      "tenance": 6750,
      "Ġsmooth": 6751,
      "Ġassociation": 6752,
      "ĠSimilar": 6753,
      "Ġlegislation": 6754,
      "Ġlandscape": 6755,
      "ĠAlzheimer": 6756,
      "rep": 6757,
      "Ġdrain": 6758,
      "ĠAccess": 6759,
      "ĠSk": 6760,
      "Ġsuitable": 6761,
      "Ġplays": 6762,
      "ulty": 6763,
      "Ġuniversity": 6764,
      "Ġcommission": 6765,
      "Ġamino": 6766,
      "Ġapproved": 6767,
      "Ġofficer": 6768,
      "Ġconsiderable": 6769,
      "Ġbusinesses": 6770,
      "Ġmagnetic": 6771,
      "Ġcoastal": 6772,
      "Ġescape": 6773,
      "ĠDistrict": 6774,
      "ĠChevrolet": 6775,
      ")|": 6776,
      "41": 6777,
      "fish": 6778,
      "inos": 6779,
      "Ġpapers": 6780,
      "anes": 6781,
      "eless": 6782,
      "Ġorbit": 6783,
      "ĠBill": 6784,
      "umes": 6785,
      "ĠEqu": 6786,
      "Ġplate": 6787,
      "Ġundert": 6788,
      "weight": 6789,
      "Ġhealthcare": 6790,
      "Ġprovider": 6791,
      "Ġ1996": 6792,
      "Ġopposed": 6793,
      "Ġtruly": 6794,
      "Ġlaid": 6795,
      "Ġfemales": 6796,
      "Ġpermission": 6797,
      "Ġdrawing": 6798,
      "Ġestimates": 6799,
      "Ġtransportation": 6800,
      "Ġwidespread": 6801,
      "Ġratio": 6802,
      "Ġsediment": 6803,
      "bra": 6804,
      "Ġpounds": 6805,
      "Ġbrand": 6806,
      "Ġhun": 6807,
      "omer": 6808,
      "uts": 6809,
      "ĠPy": 6810,
      "ĠBack": 6811,
      "Ġsup": 6812,
      "Ġchlor": 6813,
      "Ġaband": 6814,
      "Ġresident": 6815,
      "Ġinfrastructure": 6816,
      "Ġrecognition": 6817,
      "ĠKeep": 6818,
      "Ġquarter": 6819,
      "ĠOhio": 6820,
      "ĠAdministration": 6821,
      "ĠEncyclopedia": 6822,
      "TP": 6823,
      "herent": 6824,
      "Ġexists": 6825,
      "ĠLiter": 6826,
      "ults": 6827,
      "Ġpartition": 6828,
      "Ġregister": 6829,
      "Ġscar": 6830,
      "Ġdepart": 6831,
      "Ġentry": 6832,
      "azing": 6833,
      "Ġcreates": 6834,
      "Ġinteractions": 6835,
      "ĠPerhaps": 6836,
      "uracy": 6837,
      "Ġrein": 6838,
      "struction": 6839,
      "ett": 6840,
      "ĠCreat": 6841,
      "ĠHospital": 6842,
      "ails": 6843,
      "Ġpharm": 6844,
      "Ġ||": 6845,
      "Ġcourses": 6846,
      "theless": 6847,
      "ĠAdv": 6848,
      "ĠChristians": 6849,
      "Ġburning": 6850,
      "ĠMicro": 6851,
      "ĠRobin": 6852,
      "rem": 6853,
      "asp": 6854,
      "ĠCall": 6855,
      "Ġstable": 6856,
      "ĠMen": 6857,
      "Ġconclusion": 6858,
      "Ġhero": 6859,
      "ocument": 6860,
      "ĠJo": 6861,
      "ipedia": 6862,
      "Ġseeking": 6863,
      "Ġmeters": 6864,
      "Ġveter": 6865,
      "Ġcrime": 6866,
      "Ġdemonstrate": 6867,
      "Ġemotions": 6868,
      "Ġroutine": 6869,
      "Ġultimately": 6870,
      "ixture": 6871,
      "ĠDisease": 6872,
      "ĠFrancisco": 6873,
      "lv": 6874,
      "Ġcognitive": 6875,
      "etary": 6876,
      "ĠCle": 6877,
      "ĠPC": 6878,
      "quir": 6879,
      "Ġcommittee": 6880,
      "Ġcolumn": 6881,
      "ĠAsian": 6882,
      "Ġpolar": 6883,
      "Ġwhereas": 6884,
      "Ġchest": 6885,
      "ĠNext": 6886,
      "Ġgreenhouse": 6887,
      "Ġexperimental": 6888,
      "Ġprofessionals": 6889,
      "Ġmoisture": 6890,
      "Ġjourney": 6891,
      "Ġft": 6892,
      "Ġdiverse": 6893,
      "ushed": 6894,
      "ĠOs": 6895,
      "Ġdoi": 6896,
      "Ġstarts": 6897,
      "Ġphotos": 6898,
      "Ġmanufacturing": 6899,
      "Ġcryst": 6900,
      "'d": 6901,
      "CE": 6902,
      "Ġeld": 6903,
      "Ġnest": 6904,
      "Ġgained": 6905,
      "ĠCare": 6906,
      "Ġstone": 6907,
      "ptic": 6908,
      "ricts": 6909,
      "Ġseeing": 6910,
      "Ġhandle": 6911,
      "Ġcreative": 6912,
      "Ġimplementation": 6913,
      "Ġcooling": 6914,
      "Ġdependent": 6915,
      "Ġinstructions": 6916,
      "Ġnutrients": 6917,
      "04": 6918,
      "CT": 6919,
      "http": 6920,
      "Ġblow": 6921,
      "Ġnerve": 6922,
      "sey": 6923,
      "Ġoral": 6924,
      "emb": 6925,
      "ĠNov": 6926,
      "aked": 6927,
      "Ġdisabilities": 6928,
      "Ġedge": 6929,
      "Ġowner": 6930,
      "oung": 6931,
      "Ġplane": 6932,
      "Ġpainting": 6933,
      "ymes": 6934,
      "Ġmicros": 6935,
      "Ġcardi": 6936,
      "Ġrenewable": 6937,
      "Ġsatellite": 6938,
      "Ġearthquake": 6939,
      "RA": 6940,
      "Ġtank": 6941,
      "Ġmaps": 6942,
      "etime": 6943,
      "Ġstre": 6944,
      "Ġrank": 6945,
      "iah": 6946,
      "Ġwheat": 6947,
      "Ġcontamin": 6948,
      "Ġpeoples": 6949,
      "erted": 6950,
      "Ġedition": 6951,
      "Ġdistributed": 6952,
      "Ġputting": 6953,
      "Ġfacility": 6954,
      "Ġcrucial": 6955,
      "Ġprisoners": 6956,
      "ĠAND": 6957,
      "ua": 6958,
      "Ġtheore": 6959,
      "ĠAL": 6960,
      "ĠDictionary": 6961,
      "Ġscript": 6962,
      "rison": 6963,
      "Ġparas": 6964,
      "Ġmarkets": 6965,
      "ĠMoreover": 6966,
      "ĠPrince": 6967,
      "ĠSurvey": 6968,
      "ĠTitanic": 6969,
      "ĠSeveral": 6970,
      "bar": 6971,
      "tic": 6972,
      "Åį": 6973,
      "isd": 6974,
      "Ġbio": 6975,
      "Ġbanks": 6976,
      "adel": 6977,
      "Ġwhales": 6978,
      "ĠBal": 6979,
      "ĠBur": 6980,
      "ĠDiff": 6981,
      "ĠLook": 6982,
      "izer": 6983,
      "Ġourselves": 6984,
      "Ġflo": 6985,
      "Ġsmart": 6986,
      "nedy": 6987,
      "Ġopposition": 6988,
      "rolled": 6989,
      "Ġviruses": 6990,
      ")||": 6991,
      "IM": 6992,
      "car": 6993,
      "cul": 6994,
      "onn": 6995,
      "Ġgap": 6996,
      "eren": 6997,
      "unicip": 6998,
      "Ġabnormal": 6999,
      "Ġcompris": 7000,
      "ishop": 7001,
      "reek": 7002,
      "Ġ65": 7003,
      "Ġended": 7004,
      "Ġregarded": 7005,
      "Ġintegrated": 7006,
      "Ġimplications": 7007,
      "Ġnitrogen": 7008,
      "CL": 7009,
      "UT": 7010,
      "dis": 7011,
      "ey": 7012,
      "how": 7013,
      "ivery": 7014,
      "Ġdance": 7015,
      "Ġlots": 7016,
      "ĠAge": 7017,
      "ether": 7018,
      "ĠIP": 7019,
      "ĠBul": 7020,
      "ĠEp": 7021,
      "ĠNever": 7022,
      "Ġcentre": 7023,
      "Ġequally": 7024,
      "Ġpercentage": 7025,
      "Ġpassing": 7026,
      "Ġrepresentation": 7027,
      "Ġfrequent": 7028,
      "ĠBooks": 7029,
      "ĠAuthor": 7030,
      "Ġarchitecture": 7031,
      "OP": 7032,
      "Ġstages": 7033,
      "ĠPage": 7034,
      "ĠForm": 7035,
      "ĠNon": 7036,
      "ĠNaz": 7037,
      "ĠJac": 7038,
      "Ġpreval": 7039,
      "Ġproved": 7040,
      "Ġdistur": 7041,
      "Ġplanned": 7042,
      "Ġconnections": 7043,
      "Ġinvestigation": 7044,
      "Ġessentially": 7045,
      "Ġbiggest": 7046,
      "Ġdiagnosed": 7047,
      "Ġconsistent": 7048,
      "71": 7049,
      "For": 7050,
      "When": 7051,
      "mond": 7052,
      "Ġcrow": 7053,
      "asters": 7054,
      "stract": 7055,
      "ĠSund": 7056,
      "ĠCell": 7057,
      "ĠMain": 7058,
      "terior": 7059,
      "Ġrig": 7060,
      "ograp": 7061,
      "Ġoutcome": 7062,
      "Ġrepair": 7063,
      "Ġaccuracy": 7064,
      "Ġfever": 7065,
      "Ġearn": 7066,
      "Ġcarb": 7067,
      "roduction": 7068,
      "Ġchoices": 7069,
      "ĠEdward": 7070,
      "Ġtowns": 7071,
      "ĠMean": 7072,
      "________": 7073,
      "ĠKennedy": 7074,
      "Ġmathematics": 7075,
      "Ġsubsequent": 7076,
      "fortunately": 7077,
      "gans": 7078,
      "vard": 7079,
      "ĠÎ": 7080,
      "Ġdates": 7081,
      "Ġstrict": 7082,
      "ĠMot": 7083,
      "ĠDown": 7084,
      "ivated": 7085,
      "Ġpreced": 7086,
      "Ġrow": 7087,
      "Ġsurve": 7088,
      "Ġassume": 7089,
      "ĠComput": 7090,
      "Ġreader": 7091,
      "Ġvalid": 7092,
      "Ġplanets": 7093,
      "Ġcooking": 7094,
      "Ġspectrum": 7095,
      "Ġkilomet": 7096,
      "oom": 7097,
      "Ġmm": 7098,
      "ĠSir": 7099,
      "Ġye": 7100,
      "Ġneur": 7101,
      "Ġuniform": 7102,
      "ventions": 7103,
      "Ġscientist": 7104,
      "And": 7105,
      "BS": 7106,
      "How": 7107,
      "ean": 7108,
      "ato": 7109,
      "itarian": 7110,
      "Ġfurn": 7111,
      "asive": 7112,
      "Ġnurs": 7113,
      "ulpt": 7114,
      "Ġalter": 7115,
      "Ġ38": 7116,
      "Ġunderlying": 7117,
      "Ġ55": 7118,
      "Ġcoff": 7119,
      "Ġcovers": 7120,
      "Ġslavery": 7121,
      "Ġ150": 7122,
      "ĠSuper": 7123,
      "Ġcouncil": 7124,
      "Ġuniversal": 7125,
      "ĠGeorgia": 7126,
      "\")": 7127,
      "Un": 7128,
      "feed": 7129,
      "ĠTable": 7130,
      "ĠMethod": 7131,
      "osion": 7132,
      "ĠLib": 7133,
      "ĠLanguage": 7134,
      "Ġtract": 7135,
      "ĠYes": 7136,
      "Ġcommunications": 7137,
      "ĠIndones": 7138,
      "Ġdownload": 7139,
      "Ġlateral": 7140,
      "Ġflower": 7141,
      "ĠQuest": 7142,
      "Ġfulf": 7143,
      "Ġmachines": 7144,
      "Ġbullying": 7145,
      "Ġadequate": 7146,
      "adelph": 7147,
      "Ġbeat": 7148,
      "rav": 7149,
      "Ġproof": 7150,
      "ĠEastern": 7151,
      "Ġkne": 7152,
      "Ġrecover": 7153,
      "Ġexped": 7154,
      "ĠAsk": 7155,
      "Ġpresentation": 7156,
      "ĠColl": 7157,
      "Ġwarning": 7158,
      "Ġaccessible": 7159,
      "ippi": 7160,
      "Ġsuffered": 7161,
      "ĠMinistry": 7162,
      "ĠKingdom": 7163,
      "ĠModel": 7164,
      "ĠMississ": 7165,
      "Ġbehaviour": 7166,
      "Ġconcluded": 7167,
      "ĠTreatment": 7168,
      "Ã³": 7169,
      "rooms": 7170,
      "isted": 7171,
      "ĠEPA": 7172,
      "ĠGulf": 7173,
      "Ġshop": 7174,
      "Ġdepartment": 7175,
      "Ġterror": 7176,
      "Ġvariable": 7177,
      "ĠCommunity": 7178,
      "Ġexpanded": 7179,
      "Ġinterpretation": 7180,
      "fts": 7181,
      "Ġsod": 7182,
      "Ġske": 7183,
      "Ġfisher": 7184,
      "Ġnose": 7185,
      "ĠMos": 7186,
      "operation": 7187,
      "ĠRock": 7188,
      "Ġspok": 7189,
      "ĠJon": 7190,
      "Ġevident": 7191,
      "Ġoutcomes": 7192,
      "Ġroots": 7193,
      "Ġextend": 7194,
      "ĠSpring": 7195,
      "Ġmaintenance": 7196,
      "Ġboys": 7197,
      "Ġtrip": 7198,
      "Ġfeelings": 7199,
      "Ġstrongly": 7200,
      "Ġinfluenced": 7201,
      "Ġindicated": 7202,
      "Ġargue": 7203,
      "Ġcapture": 7204,
      "ĠCheck": 7205,
      "Ġordered": 7206,
      "olester": 7207,
      "Ġprincipal": 7208,
      "Ġneighb": 7209,
      "Ġtraditions": 7210,
      "Ġinformed": 7211,
      "Ġbranch": 7212,
      "ĠSupreme": 7213,
      "08": 7214,
      "pes": 7215,
      "Ġplus": 7216,
      "Ġrelief": 7217,
      "Ġaccident": 7218,
      "Ġfeeding": 7219,
      "Ġinterior": 7220,
      "They": 7221,
      "Ġcutting": 7222,
      "Ġthreatened": 7223,
      "liest": 7224,
      "Ġcomplicated": 7225,
      "Ġkingdom": 7226,
      "Ġintelligence": 7227,
      "Ġhazard": 7228,
      "Ġthorough": 7229,
      "adelphia": 7230,
      "iological": 7231,
      "ugg": 7232,
      "sell": 7233,
      "raq": 7234,
      "ĠBab": 7235,
      "Ġkit": 7236,
      "Ġdisk": 7237,
      "orses": 7238,
      "iana": 7239,
      "Ġscan": 7240,
      "ypes": 7241,
      "Ġseconds": 7242,
      "Ġpositions": 7243,
      "Ġfunds": 7244,
      "Ġtribes": 7245,
      "Ġassigned": 7246,
      "Ġisolated": 7247,
      "Ġtrouble": 7248,
      "Ġphenomenon": 7249,
      "rite": 7250,
      "enh": 7251,
      "ĠSar": 7252,
      "ĠSolar": 7253,
      "Ġcontribution": 7254,
      "Ġ1930": 7255,
      "ĠKn": 7256,
      "Ġacknow": 7257,
      "ĠWeek": 7258,
      "Ġsupporting": 7259,
      "Ġrealize": 7260,
      "Ġturning": 7261,
      "Ġdanger": 7262,
      "ĠModern": 7263,
      "Ġfairly": 7264,
      "ĠSenate": 7265,
      "EP": 7266,
      "onym": 7267,
      "itals": 7268,
      "Ġmice": 7269,
      "Ġdealing": 7270,
      "Ġjump": 7271,
      "ressive": 7272,
      "Ġteen": 7273,
      "Ġmodified": 7274,
      "Ġinstalled": 7275,
      "Ġstatements": 7276,
      "Ġheads": 7277,
      "Ġfacing": 7278,
      "Ġcalories": 7279,
      "Ġswitch": 7280,
      "ĠMinister": 7281,
      "Ġbringing": 7282,
      "Ġbrings": 7283,
      "Ġsongs": 7284,
      "Ġcommitment": 7285,
      "But": 7286,
      "ding": 7287,
      "iy": 7288,
      "uels": 7289,
      "word": 7290,
      "zer": 7291,
      "ĠSil": 7292,
      "Ġforget": 7293,
      "abits": 7294,
      "ĠDig": 7295,
      "riers": 7296,
      "ĠGar": 7297,
      "ĠOk": 7298,
      "Ġintense": 7299,
      "Ġ37": 7300,
      "Ġroyal": 7301,
      "neys": 7302,
      "Ġartists": 7303,
      "elfare": 7304,
      "Ġprobability": 7305,
      "ĠKey": 7306,
      "ĠServices": 7307,
      "ĠAngel": 7308,
      "Ġbegun": 7309,
      "Ġinitiative": 7310,
      "Ġpurchase": 7311,
      "ĠLaboratory": 7312,
      "Ġnewspaper": 7313,
      "%.": 7314,
      "itative": 7315,
      "Ġhunting": 7316,
      "Ġlymph": 7317,
      "Ġislands": 7318,
      "ady": 7319,
      "Ġ(\"": 7320,
      "ĠHill": 7321,
      "ĠChange": 7322,
      "Ġhighlight": 7323,
      "ĠProb": 7324,
      "Ġartificial": 7325,
      "Ġprominent": 7326,
      "Ġradical": 7327,
      "ĠMississippi": 7328,
      "98": 7329,
      "gers": 7330,
      "sue": 7331,
      "Ġaster": 7332,
      "Ġcited": 7333,
      "alog": 7334,
      "alination": 7335,
      "Ġgiant": 7336,
      "Ġongoing": 7337,
      "ĠMoon": 7338,
      "Ġconven": 7339,
      "Ġreliable": 7340,
      "Ġpresents": 7341,
      "Ġsmoke": 7342,
      "Ġminerals": 7343,
      "Ġwrites": 7344,
      "including": 7345,
      "Ġreceiving": 7346,
      "Ġliterary": 7347,
      "Ġmechanical": 7348,
      "Ġattempts": 7349,
      "Ġtissues": 7350,
      "Ġangle": 7351,
      "Ġroughly": 7352,
      "hyd": 7353,
      "rigation": 7354,
      "vin": 7355,
      "Ġtasks": 7356,
      "edu": 7357,
      "Ġmales": 7358,
      "ĠCross": 7359,
      "Ġdeeper": 7360,
      "abul": 7361,
      "rous": 7362,
      "Ġusual": 7363,
      "itely": 7364,
      "Ġrelax": 7365,
      "Ġgravity": 7366,
      "Ġboat": 7367,
      "Ġdelivery": 7368,
      "Ġzero": 7369,
      "Ġinteractive": 7370,
      "Ġdivor": 7371,
      "Ġvisitors": 7372,
      "ĠHeritage": 7373,
      "Ġbreathing": 7374,
      "Ġcategories": 7375,
      "Ġconfirmed": 7376,
      "ĠStandard": 7377,
      "ĠFurthermore": 7378,
      "Ġsenior": 7379,
      "Ġmanifest": 7380,
      "MS": 7381,
      "bell": 7382,
      "cus": 7383,
      "df": 7384,
      "rd": 7385,
      "then": 7386,
      "upp": 7387,
      "Ġtropical": 7388,
      "Ġbomb": 7389,
      "elve": 7390,
      "istent": 7391,
      "ĠHoly": 7392,
      "achers": 7393,
      "asty": 7394,
      "Ġadds": 7395,
      "Ġcalling": 7396,
      "ĠIndeed": 7397,
      "Ġbreeding": 7398,
      "Ġoptim": 7399,
      "Ġharmful": 7400,
      "Ġevaluation": 7401,
      "Ġimagine": 7402,
      "Ġcamera": 7403,
      "Ġstroke": 7404,
      "olesterol": 7405,
      "Sp": 7406,
      "UN": 7407,
      "iat": 7408,
      "iary": 7409,
      "Ġahead": 7410,
      "Ġov": 7411,
      "Ġbeds": 7412,
      "Ġfed": 7413,
      "Ġfashion": 7414,
      "Ġexclus": 7415,
      "Ġnotion": 7416,
      "Ġmaybe": 7417,
      "Ġtheme": 7418,
      "Ġthereby": 7419,
      "ĠUnfortunately": 7420,
      "Ġtransf": 7421,
      "uese": 7422,
      "Ġdamaged": 7423,
      "Ġconsumer": 7424,
      "Ġabsence": 7425,
      "Ġbabies": 7426,
      "Ġcovering": 7427,
      "ĠMichigan": 7428,
      "Ġpanel": 7429,
      "Ġbehaviors": 7430,
      "Ġinflammation": 7431,
      "hythm": 7432,
      "',": 7433,
      "inates": 7434,
      "Ġcosm": 7435,
      "raham": 7436,
      "ĠHy": 7437,
      "Ġenzyme": 7438,
      "ella": 7439,
      "ube": 7440,
      "Ġtrained": 7441,
      "Ġartist": 7442,
      "Ġfinds": 7443,
      "Ġcharged": 7444,
      "Ġcareful": 7445,
      "Ġspacecraft": 7446,
      "Ġindustries": 7447,
      "Ġseparated": 7448,
      "Ġmothers": 7449,
      "Ġdramatic": 7450,
      "Ġappointed": 7451,
      "Ġvulnerable": 7452,
      "Ġsurfaces": 7453,
      "aired": 7454,
      "produ": 7455,
      "Ġbatt": 7456,
      "Ġmail": 7457,
      "Ġconqu": 7458,
      "ĠPak": 7459,
      "ĠBureau": 7460,
      "ivered": 7461,
      "alls": 7462,
      "ĠJeff": 7463,
      "apse": 7464,
      "Ġprovince": 7465,
      "Ġ2015": 7466,
      "Ġserving": 7467,
      "Ġconference": 7468,
      "Ġcriteria": 7469,
      "Ġasking": 7470,
      "Ġmoves": 7471,
      "ĠPhiladelphia": 7472,
      "Ġmitochond": 7473,
      "ĠOpen": 7474,
      "Ġillegal": 7475,
      "42": 7476,
      "].": 7477,
      "li": 7478,
      "rection": 7479,
      "esides": 7480,
      "Ġpou": 7481,
      "idance": 7482,
      "ĠCorn": 7483,
      "Ġstead": 7484,
      "acing": 7485,
      "Ġpeak": 7486,
      "Ġrose": 7487,
      "Ġsculpt": 7488,
      "Ġexamination": 7489,
      "2012": 7490,
      "arents": 7491,
      "Ġconcrete": 7492,
      "Ġvillages": 7493,
      "Ġatmospheric": 7494,
      "ĠEgyptian": 7495,
      "Ġelectrons": 7496,
      "ĠLearn": 7497,
      "Ġmelan": 7498,
      "Ġscheme": 7499,
      "Ġbutterf": 7500,
      "just": 7501,
      "upt": 7502,
      "Ġpair": 7503,
      "Ġhidden": 7504,
      "Ġthr": 7505,
      "Ġrecept": 7506,
      "olt": 7507,
      "Ġsting": 7508,
      "ums": 7509,
      "essions": 7510,
      "Ġvac": 7511,
      "ĠLater": 7512,
      "ĠOt": 7513,
      "Ġdism": 7514,
      "avor": 7515,
      "Ġoutbre": 7516,
      "Ġdistricts": 7517,
      "ĠOnline": 7518,
      "Ġoccurring": 7519,
      "Ġfourth": 7520,
      "Ġbeneficial": 7521,
      "ĠScot": 7522,
      "Ġessay": 7523,
      "ĠPrevention": 7524,
      "ĠMaryland": 7525,
      "Ġmosquit": 7526,
      "Ġweapons": 7527,
      "ĠAriz": 7528,
      "Ġunusual": 7529,
      "rines": 7530,
      "Ġol": 7531,
      "ĠDen": 7532,
      "Ġsuit": 7533,
      "orted": 7534,
      "ĠObs": 7535,
      "agle": 7536,
      "ruption": 7537,
      "ishment": 7538,
      "Ġworksh": 7539,
      "Ġbless": 7540,
      "rowing": 7541,
      "angered": 7542,
      "Ġdistant": 7543,
      "ounter": 7544,
      "Ġdescend": 7545,
      "Ġlowest": 7546,
      "ographical": 7547,
      "ĠBeh": 7548,
      "ĠNeu": 7549,
      "Ġsettlement": 7550,
      "Ġbeliefs": 7551,
      "ĠHistorical": 7552,
      "Ġsharp": 7553,
      "'.": 7554,
      "Ġid": 7555,
      "Ġcav": 7556,
      "urric": 7557,
      "ĠMult": 7558,
      "Ġritual": 7559,
      "Ġuncom": 7560,
      "Ġrab": 7561,
      "Ġproportion": 7562,
      "ulsion": 7563,
      "Ġordinary": 7564,
      "Ġexception": 7565,
      "Ġfavorite": 7566,
      "Cl": 7567,
      "oids": 7568,
      "tail": 7569,
      "ugh": 7570,
      "zymes": 7571,
      "Ġpit": 7572,
      "sts": 7573,
      "ĠFace": 7574,
      "Ġdispos": 7575,
      "ĠSpir": 7576,
      "Ġfinished": 7577,
      "ĠJohnson": 7578,
      "Ġsteel": 7579,
      "Ġencouraged": 7580,
      "Ġelsewhere": 7581,
      "Ġhormone": 7582,
      "SS": 7583,
      "from": 7584,
      "rint": 7585,
      "Ġdys": 7586,
      "Ġhole": 7587,
      "Ġholid": 7588,
      "ĠIraq": 7589,
      "ĠPolic": 7590,
      "ĠEst": 7591,
      "ĠOl": 7592,
      "Ġcompare": 7593,
      "Ġouter": 7594,
      "Ġproven": 7595,
      "erty": 7596,
      "Ġpreserve": 7597,
      "Ġrefuge": 7598,
      "Ġrespir": 7599,
      "ĠSeattle": 7600,
      "Ġguard": 7601,
      "ĠLee": 7602,
      "ĠPlant": 7603,
      "Ġevaluate": 7604,
      "Ġsubstantial": 7605,
      "Ġsession": 7606,
      "Ġbot": 7607,
      "Ġgay": 7608,
      "ĠPur": 7609,
      "ĠPract": 7610,
      "usiness": 7611,
      "ĠDom": 7612,
      "earch": 7613,
      "ĠIndepend": 7614,
      "ĠSpain": 7615,
      "Ġslave": 7616,
      "Ġkilling": 7617,
      "Ġengineers": 7618,
      "ĠMinnes": 7619,
      "Ġrespectively": 7620,
      "ĠObject": 7621,
      "Ġprinted": 7622,
      "ĠRelig": 7623,
      "Ġmissing": 7624,
      "69": 7625,
      "On": 7626,
      "encing": 7627,
      "Ġcaught": 7628,
      "Ġpin": 7629,
      "Ġfro": 7630,
      "Ġrely": 7631,
      "adow": 7632,
      "Ġconj": 7633,
      "Ġshock": 7634,
      "pling": 7635,
      "Ġpartner": 7636,
      "Ġinterface": 7637,
      "Ġpropos": 7638,
      "Ġhappening": 7639,
      "ĠDoes": 7640,
      "Ġmagnitude": 7641,
      ",'": 7642,
      "chen": 7643,
      "mers": 7644,
      "Ġtight": 7645,
      "ĠHand": 7646,
      "ĠDC": 7647,
      "Ġenorm": 7648,
      "Ġworship": 7649,
      "Ġresc": 7650,
      "Ġflour": 7651,
      "Ġpatent": 7652,
      "Ġentit": 7653,
      "Ġeleph": 7654,
      "Ġflows": 7655,
      "Ġstopped": 7656,
      "Ġbeauty": 7657,
      "Ġgods": 7658,
      "Ġemphasis": 7659,
      "mod": 7660,
      "mail": 7661,
      "ĠCA": 7662,
      "ĠHor": 7663,
      "Ġevolved": 7664,
      "Ġexamined": 7665,
      "Ġsheet": 7666,
      "Ġlosses": 7667,
      "Ġoptical": 7668,
      "Ġimprovement": 7669,
      "Ġsubstances": 7670,
      "Ġsettled": 7671,
      "Ġheavily": 7672,
      "Ġgradually": 7673,
      "Ġaccompan": 7674,
      "Ġbranches": 7675,
      "ĠSunday": 7676,
      "Ġcoffee": 7677,
      "ĠMinnesota": 7678,
      "aud": 7679,
      "host": 7680,
      "Ġcodes": 7681,
      "elesc": 7682,
      "Ġchair": 7683,
      "Ġsport": 7684,
      "ologic": 7685,
      "anges": 7686,
      "Ġpoem": 7687,
      "Ġ48": 7688,
      "ĠIndust": 7689,
      "Ġtempor": 7690,
      "Ġdescript": 7691,
      "ĠWithout": 7692,
      "Ġresearcher": 7693,
      "aneous": 7694,
      "ĠMalays": 7695,
      "Ġupdated": 7696,
      "ĠOrganization": 7697,
      "making": 7698,
      "rity": 7699,
      "Ġboy": 7700,
      "oul": 7701,
      "Ġgases": 7702,
      "Ġwithd": 7703,
      "ĠUr": 7704,
      "Ġplain": 7705,
      "aph": 7706,
      "Ġunw": 7707,
      "Ġblocks": 7708,
      "Ġgluc": 7709,
      "Ġvisited": 7710,
      "ĠMedia": 7711,
      "Ġfarms": 7712,
      "Ġdriven": 7713,
      "Ġvirtually": 7714,
      "Ġautomatically": 7715,
      "ĠTestament": 7716,
      "non": 7717,
      "Ġsitting": 7718,
      "aders": 7719,
      "Ġorgans": 7720,
      "ĠHit": 7721,
      "acial": 7722,
      "Ġvoc": 7723,
      "Ġclot": 7724,
      "Ġpref": 7725,
      "Ġearliest": 7726,
      "century": 7727,
      "2013": 7728,
      "ĠExam": 7729,
      "Ġpointed": 7730,
      "Ġdomain": 7731,
      "Ġreserved": 7732,
      "ĠArizona": 7733,
      "onia": 7734,
      "eness": 7735,
      "Ġment": 7736,
      "ĠSA": 7737,
      "ĠSource": 7738,
      "otton": 7739,
      "oding": 7740,
      "Ġrational": 7741,
      "ĠView": 7742,
      "Ġsched": 7743,
      "archy": 7744,
      "Ġdelivered": 7745,
      "Ġsunlight": 7746,
      "Ġdebt": 7747,
      "Ġquantum": 7748,
      "Ġvirtual": 7749,
      "Ġcustomers": 7750,
      "iblical": 7751,
      "ĠDaniel": 7752,
      "itivity": 7753,
      "oric": 7754,
      "ani": 7755,
      "Ġstick": 7756,
      "ĠLight": 7757,
      "Ġ34": 7758,
      "ĠYear": 7759,
      "ĠIslands": 7760,
      "upiter": 7761,
      "airy": 7762,
      "Ġdesigns": 7763,
      "Ġcorrel": 7764,
      "Ġbelieves": 7765,
      "Ġparad": 7766,
      "being": 7767,
      "Ġ1969": 7768,
      "Ġmaintained": 7769,
      "Ġconcentrations": 7770,
      "Ġrecommendations": 7771,
      "58": 7772,
      "68": 7773,
      "onents": 7774,
      "icious": 7775,
      "ĠAP": 7776,
      "oler": 7777,
      "Ġasc": 7778,
      "ĠBattle": 7779,
      "ĠField": 7780,
      "Ġran": 7781,
      "Ġspoke": 7782,
      "Ġplenty": 7783,
      "Ġcomprom": 7784,
      "Ġnewly": 7785,
      "Ġevening": 7786,
      "Ġfaced": 7787,
      "Ġexisted": 7788,
      "Ġfalling": 7789,
      "Ġremoval": 7790,
      "Ġsoul": 7791,
      "ĠVolume": 7792,
      "Ġsilver": 7793,
      "Ġcontributed": 7794,
      "ĠSystems": 7795,
      "ĠProtection": 7796,
      "ĠConnect": 7797,
      "but": 7798,
      "top": 7799,
      "Ġvel": 7800,
      "Ġmercury": 7801,
      "asma": 7802,
      "arts": 7803,
      "ogether": 7804,
      "Ġcontents": 7805,
      "Ġ1912": 7806,
      "Ġ1880": 7807,
      "Ġdefects": 7808,
      "ĠArts": 7809,
      "Ġadvis": 7810,
      "Ġdirections": 7811,
      "sylv": 7812,
      "aimed": 7813,
      "Ġcharacterized": 7814,
      "Ġsteam": 7815,
      "ĠPakistan": 7816,
      "hus": 7817,
      "iations": 7818,
      "uber": 7819,
      "isk": 7820,
      "isdom": 7821,
      "Ġfest": 7822,
      "Ġmur": 7823,
      "Ġhat": 7824,
      "ĠTom": 7825,
      "ĠAh": 7826,
      "sets": 7827,
      "ĠCode": 7828,
      "amins": 7829,
      "iller": 7830,
      "Ġvan": 7831,
      "ĠNut": 7832,
      "Ġworst": 7833,
      "apor": 7834,
      "Ġinfect": 7835,
      "Ġ33": 7836,
      "Ġraw": 7837,
      "Ġsupplements": 7838,
      "Ġeffectiveness": 7839,
      "Ġsolve": 7840,
      "ĠConference": 7841,
      "Ġtemporary": 7842,
      "Ġidentification": 7843,
      "ĠCentre": 7844,
      "Ġversions": 7845,
      "Ġecological": 7846,
      "Ġaims": 7847,
      "Ġuniversities": 7848,
      "ĠConfed": 7849,
      "ĠDivision": 7850,
      "ĠPortuguese": 7851,
      "unicipal": 7852,
      "09": 7853,
      "aith": 7854,
      "Ġtor": 7855,
      "Ġrect": 7856,
      "ĠFather": 7857,
      "ĠNic": 7858,
      "Ġseat": 7859,
      "Ġring": 7860,
      "Ġleaf": 7861,
      "Ġagent": 7862,
      "teb": 7863,
      "Ġknowing": 7864,
      "ĠAssembly": 7865,
      "Ġprophe": 7866,
      "Ġfunctional": 7867,
      "Ġaudience": 7868,
      "Ġcategory": 7869,
      "athered": 7870,
      "quiry": 7871,
      "De": 7872,
      "IR": 7873,
      "abric": 7874,
      "Ġcholesterol": 7875,
      "ĠJupiter": 7876,
      "Ġcompound": 7877,
      "Ġroads": 7878,
      "Ġskill": 7879,
      "Ġ1991": 7880,
      "Ġpreventing": 7881,
      "Ġdemands": 7882,
      "Ġaddressed": 7883,
      "ucky": 7884,
      "Ġapparently": 7885,
      "ĠPennsylv": 7886,
      "%)": 7887,
      "bu": 7888,
      "rin": 7889,
      "sper": 7890,
      "yer": 7891,
      "ouri": 7892,
      "asant": 7893,
      "ĠMid": 7894,
      "ighth": 7895,
      "Ġspending": 7896,
      "ĠInit": 7897,
      "Ġadvent": 7898,
      "ĠKansas": 7899,
      "Ġobesity": 7900,
      "Ġvariation": 7901,
      "Ġconsidering": 7902,
      "Ġboost": 7903,
      "raining": 7904,
      "Ġchemistry": 7905,
      "ĠCarl": 7906,
      "Ġconsideration": 7907,
      "Ġkiller": 7908,
      "Ġinitially": 7909,
      "prof": 7910,
      "Ġemotion": 7911,
      "Ġwatershed": 7912,
      "iosity": 7913,
      "ĠWindows": 7914,
      "Ġsatisf": 7915,
      "Ġpoetry": 7916,
      "Ġfet": 7917,
      "Ġfellow": 7918,
      "Ġhorses": 7919,
      "ĠTri": 7920,
      "ette": 7921,
      "ĠMove": 7922,
      "ĠMax": 7923,
      "ĠBiology": 7924,
      "ĠWal": 7925,
      "Ġworry": 7926,
      "Ġarmed": 7927,
      "Ġaged": 7928,
      "issance": 7929,
      "Ġproviders": 7930,
      "Ġpromise": 7931,
      "Ġviewed": 7932,
      "Ġanalog": 7933,
      "udej": 7934,
      "Ġvolunteers": 7935,
      "Ġsuspect": 7936,
      "Ġreveal": 7937,
      "ĠJustice": 7938,
      "Ġclothing": 7939,
      "Ġloved": 7940,
      "Ġathlet": 7941,
      "law": 7942,
      "ouds": 7943,
      "Ġmac": 7944,
      "Ġtomat": 7945,
      "Ġhabits": 7946,
      "ĠTenn": 7947,
      "Ġlibr": 7948,
      "urches": 7949,
      "irie": 7950,
      "ĠMudej": 7951,
      "ĠDutch": 7952,
      "ĠNum": 7953,
      "Ġplot": 7954,
      "Ġarray": 7955,
      "Ġthanks": 7956,
      "ritis": 7957,
      "Ġanywhere": 7958,
      "Ġpron": 7959,
      "Ġforming": 7960,
      "Ġoccas": 7961,
      "commun": 7962,
      "Ġconfig": 7963,
      "Ġdemocracy": 7964,
      "ĠAgain": 7965,
      "Ġimplemented": 7966,
      "Ġbreath": 7967,
      "gressive": 7968,
      "opathy": 7969,
      "Ġinhabit": 7970,
      "Ġlecture": 7971,
      "Ġenforcement": 7972,
      "Ġstreets": 7973,
      "63": 7974,
      "CR": 7975,
      "bul": 7976,
      "bel": 7977,
      "kind": 7978,
      "mes": 7979,
      "Ġtables": 7980,
      "aton": 7981,
      "Ġcash": 7982,
      "iture": 7983,
      "itches": 7984,
      "Ġbath": 7985,
      "Ġmine": 7986,
      "cho": 7987,
      "irms": 7988,
      "ĠDO": 7989,
      "ĠRh": 7990,
      "Ġcham": 7991,
      "Ġ39": 7992,
      "ĠYoung": 7993,
      "Ġindigenous": 7994,
      "Ġdesalination": 7995,
      "Ġinvention": 7996,
      "Ġsubstit": 7997,
      "Ġ95": 7998,
      "Ġfalls": 7999,
      "regon": 8000,
      "Ġnarrative": 8001,
      "ĠVitamin": 8002,
      "HS": 8003,
      "iop": 8004,
      "hea": 8005,
      "Ġpione": 8006,
      "ounce": 8007,
      "Ġdoses": 8008,
      "ceans": 8009,
      "ĠNear": 8010,
      "iva": 8011,
      "ĠGre": 8012,
      "ĠOtt": 8013,
      "endar": 8014,
      "Ġcluster": 8015,
      "soft": 8016,
      "osexual": 8017,
      "ĠStart": 8018,
      "Ġroles": 8019,
      "Ġblind": 8020,
      "ĠUnlike": 8021,
      "Ġguidance": 8022,
      "Ġcirculation": 8023,
      "Ġfunded": 8024,
      "Ġsaved": 8025,
      "isphere": 8026,
      "ĠEconomic": 8027,
      "names": 8028,
      "Ġ..": 8029,
      "orters": 8030,
      "ĠSaint": 8031,
      "Ġstores": 8032,
      "uled": 8033,
      "aying": 8034,
      "Ġ120": 8035,
      "ĠPot": 8036,
      "ĠFDA": 8037,
      "ĠOil": 8038,
      "ustain": 8039,
      "Ġmeal": 8040,
      "Ġtransp": 8041,
      "ĠPhot": 8042,
      "Ġprogramming": 8043,
      "Ġconcerning": 8044,
      "ĠHarvard": 8045,
      "Ġfibers": 8046,
      "Ġphotographs": 8047,
      "Ġdiameter": 8048,
      "Ġorientation": 8049,
      "ĠSecretary": 8050,
      "ĠPennsylvania": 8051,
      "reated": 8052,
      "icular": 8053,
      "Ġdental": 8054,
      "ĠMond": 8055,
      "ĠMajor": 8056,
      "Ġheating": 8057,
      "Ġhence": 8058,
      "estyle": 8059,
      "ĠJava": 8060,
      "ateral": 8061,
      "Ġspecified": 8062,
      "Ġbuff": 8063,
      "Ġtechnological": 8064,
      "Ġreporting": 8065,
      "gener": 8066,
      "ospitals": 8067,
      "ĠChristmas": 8068,
      "Ġ1988": 8069,
      "Ġassociate": 8070,
      "Ġheaven": 8071,
      "Ġirrigation": 8072,
      "Ġtargets": 8073,
      "Ġorders": 8074,
      "Ġranging": 8075,
      "Ġlungs": 8076,
      "Ġingredients": 8077,
      "ĠFacebook": 8078,
      "Ġbridge": 8079,
      "ĠCapt": 8080,
      "ĠDog": 8081,
      "Ġcancers": 8082,
      "ĠOregon": 8083,
      "asts": 8084,
      "Ġclient": 8085,
      "Ġoffering": 8086,
      "Ġphosph": 8087,
      "Ġparticle": 8088,
      "Ġexplicit": 8089,
      "Ġtemple": 8090,
      "Ġobserve": 8091,
      "Ġ1979": 8092,
      "Ġrepresentative": 8093,
      "Ġdifficulties": 8094,
      "Ġgrounds": 8095,
      "Ġmaintaining": 8096,
      "Ġutility": 8097,
      "Ġtrends": 8098,
      "Ġnervous": 8099,
      "07": 8100,
      "Ġ;": 8101,
      "onald": 8102,
      "Ġinert": 8103,
      "Ġholy": 8104,
      "ĠTan": 8105,
      "Ġnice": 8106,
      "Ġnodes": 8107,
      "ĠPass": 8108,
      "ĠHim": 8109,
      "ĠRay": 8110,
      "ĠGall": 8111,
      "ĠIns": 8112,
      "ecess": 8113,
      "Ġallergy": 8114,
      "plete": 8115,
      "ĠIndigenous": 8116,
      "Ġcharacteristic": 8117,
      "Ġminds": 8118,
      "Ġemerging": 8119,
      "Ġarchae": 8120,
      "ĠTrade": 8121,
      "Ġchallenging": 8122,
      "Ġuncertain": 8123,
      "ioxid": 8124,
      "Ġcollaboration": 8125,
      "Ġsplit": 8126,
      "Ġchicken": 8127,
      "otherapy": 8128,
      "ao": 8129,
      "aus": 8130,
      "hi": 8131,
      "vals": 8132,
      "Ġcraft": 8133,
      "Ġlists": 8134,
      "Ġgro": 8135,
      "ĠSyn": 8136,
      "Ġstuff": 8137,
      "ĠMach": 8138,
      "Ġconclus": 8139,
      "ĠPoint": 8140,
      "Ġven": 8141,
      "Ġspaces": 8142,
      "action": 8143,
      "Ġperception": 8144,
      "aven": 8145,
      "Ġrecording": 8146,
      "ieth": 8147,
      "Ġhumidity": 8148,
      "Ġgrain": 8149,
      "2009": 8150,
      "Ġobservation": 8151,
      "Ġepis": 8152,
      "Ġexecutive": 8153,
      "gregation": 8154,
      "Ġjurisd": 8155,
      "ĠFollowing": 8156,
      "Ġneurons": 8157,
      "59": 8158,
      "AA": 8159,
      "Ex": 8160,
      "rong": 8161,
      "sm": 8162,
      "Ġ)": 8163,
      "icy": 8164,
      "igate": 8165,
      "ĠWed": 8166,
      "Ġhealing": 8167,
      "ĠDrug": 8168,
      "ĠLin": 8169,
      "awa": 8170,
      "Ġsimult": 8171,
      "class": 8172,
      "Ġmeasuring": 8173,
      "Ġprotecting": 8174,
      "Ġprotective": 8175,
      "ĠConsider": 8176,
      "Ġadapted": 8177,
      "Ġinnovation": 8178,
      "Ġdropped": 8179,
      "ĠDarwin": 8180,
      "ĠIdent": 8181,
      "Ġmetabol": 8182,
      ".).": 8183,
      "FS": 8184,
      "GO": 8185,
      "QL": 8186,
      "bles": 8187,
      "tw": 8188,
      "Ġcort": 8189,
      "Ġcattle": 8190,
      "Ġwelfare": 8191
    },
    "merges": [
      [
        "Ġ",
        "t"
      ],
      [
        "Ġ",
        "a"
      ],
      [
        "h",
        "e"
      ],
      [
        "i",
        "n"
      ],
      [
        "r",
        "e"
      ],
      [
        "Ġt",
        "he"
      ],
      [
        "Ġ",
        "o"
      ],
      [
        "e",
        "r"
      ],
      [
        "o",
        "n"
      ],
      [
        "a",
        "t"
      ],
      [
        "Ġ",
        "s"
      ],
      [
        "e",
        "n"
      ],
      [
        "Ġ",
        "c"
      ],
      [
        "Ġ",
        "w"
      ],
      [
        "e",
        "s"
      ],
      [
        "i",
        "s"
      ],
      [
        "n",
        "d"
      ],
      [
        "i",
        "t"
      ],
      [
        "o",
        "r"
      ],
      [
        "Ġ",
        "p"
      ],
      [
        "Ġo",
        "f"
      ],
      [
        "e",
        "d"
      ],
      [
        "a",
        "l"
      ],
      [
        "Ġ",
        "b"
      ],
      [
        "Ġ",
        "f"
      ],
      [
        "a",
        "n"
      ],
      [
        "Ġ",
        "in"
      ],
      [
        "a",
        "r"
      ],
      [
        "in",
        "g"
      ],
      [
        "o",
        "u"
      ],
      [
        "Ġ",
        "m"
      ],
      [
        "Ġa",
        "nd"
      ],
      [
        "i",
        "c"
      ],
      [
        "Ġt",
        "o"
      ],
      [
        "i",
        "on"
      ],
      [
        "Ġ",
        "d"
      ],
      [
        "l",
        "e"
      ],
      [
        "r",
        "o"
      ],
      [
        "a",
        "s"
      ],
      [
        "Ġ",
        "h"
      ],
      [
        "en",
        "t"
      ],
      [
        "Ġt",
        "h"
      ],
      [
        "c",
        "t"
      ],
      [
        "i",
        "l"
      ],
      [
        "Ġ",
        "e"
      ],
      [
        "Ġ",
        "re"
      ],
      [
        "Ġ",
        "T"
      ],
      [
        "o",
        "m"
      ],
      [
        "Ġ",
        "l"
      ],
      [
        "Ġ",
        "n"
      ],
      [
        "v",
        "e"
      ],
      [
        "s",
        "t"
      ],
      [
        "l",
        "y"
      ],
      [
        "Ġb",
        "e"
      ],
      [
        "Ġ",
        "is"
      ],
      [
        "Ġ",
        "A"
      ],
      [
        "o",
        "l"
      ],
      [
        "s",
        "e"
      ],
      [
        "at",
        "ion"
      ],
      [
        "Ġ",
        "g"
      ],
      [
        "i",
        "d"
      ],
      [
        "i",
        "m"
      ],
      [
        "Ġ",
        "S"
      ],
      [
        "c",
        "e"
      ],
      [
        "u",
        "t"
      ],
      [
        "â",
        "Ģ"
      ],
      [
        "e",
        "t"
      ],
      [
        "o",
        "t"
      ],
      [
        "Ġ",
        "I"
      ],
      [
        "r",
        "a"
      ],
      [
        "u",
        "r"
      ],
      [
        "c",
        "h"
      ],
      [
        "Ġ",
        "C"
      ],
      [
        "o",
        "w"
      ],
      [
        "Ġf",
        "or"
      ],
      [
        "i",
        "g"
      ],
      [
        "Ġth",
        "at"
      ],
      [
        "Ġo",
        "n"
      ],
      [
        "Ġ",
        "u"
      ],
      [
        "v",
        "er"
      ],
      [
        "ĠT",
        "he"
      ],
      [
        "Ġs",
        "t"
      ],
      [
        "i",
        "r"
      ],
      [
        "a",
        "m"
      ],
      [
        "u",
        "l"
      ],
      [
        "a",
        "y"
      ],
      [
        "a",
        "d"
      ],
      [
        "e",
        "l"
      ],
      [
        "Ġa",
        "s"
      ],
      [
        "Ġ",
        "M"
      ],
      [
        "it",
        "h"
      ],
      [
        "he",
        "r"
      ],
      [
        "Ġ",
        "y"
      ],
      [
        "Ġp",
        "ro"
      ],
      [
        "Ġc",
        "on"
      ],
      [
        "Ġ",
        "1"
      ],
      [
        "Ġa",
        "n"
      ],
      [
        "Ġ",
        "P"
      ],
      [
        "Ġw",
        "h"
      ],
      [
        "Ġw",
        "ith"
      ],
      [
        "Ġa",
        "re"
      ],
      [
        "Ġ",
        "("
      ],
      [
        "Ġo",
        "r"
      ],
      [
        "t",
        "er"
      ],
      [
        "i",
        "f"
      ],
      [
        "Ġ",
        "it"
      ],
      [
        "Ġa",
        "l"
      ],
      [
        "Ġ",
        "B"
      ],
      [
        "o",
        "d"
      ],
      [
        "m",
        "ent"
      ],
      [
        "is",
        "t"
      ],
      [
        "t",
        "h"
      ],
      [
        "g",
        "e"
      ],
      [
        "o",
        "p"
      ],
      [
        "er",
        "s"
      ],
      [
        "Ġ",
        "H"
      ],
      [
        "at",
        "e"
      ],
      [
        "Ġd",
        "e"
      ],
      [
        "Ġ",
        "W"
      ],
      [
        "i",
        "es"
      ],
      [
        "il",
        "l"
      ],
      [
        "u",
        "s"
      ],
      [
        "e",
        "re"
      ],
      [
        "Ġy",
        "ou"
      ],
      [
        "Ġe",
        "x"
      ],
      [
        "a",
        "b"
      ],
      [
        "Ġ",
        "he"
      ],
      [
        "re",
        "s"
      ],
      [
        "u",
        "m"
      ],
      [
        "Ġc",
        "om"
      ],
      [
        "es",
        "s"
      ],
      [
        "it",
        "y"
      ],
      [
        "e",
        "ct"
      ],
      [
        "Ġb",
        "y"
      ],
      [
        "Ġ",
        "D"
      ],
      [
        "es",
        "t"
      ],
      [
        "ro",
        "m"
      ],
      [
        "l",
        "d"
      ],
      [
        "o",
        "re"
      ],
      [
        "o",
        "s"
      ],
      [
        "Ġh",
        "a"
      ],
      [
        "Ġ",
        "F"
      ],
      [
        "Ġs",
        "u"
      ],
      [
        "r",
        "i"
      ],
      [
        "Ġa",
        "t"
      ],
      [
        "e",
        "m"
      ],
      [
        "Ġ",
        "E"
      ],
      [
        "Ġ",
        "R"
      ],
      [
        "a",
        "c"
      ],
      [
        "Ġw",
        "as"
      ],
      [
        "Ġ",
        "-"
      ],
      [
        "Ġ",
        "v"
      ],
      [
        "i",
        "ve"
      ],
      [
        "n",
        "t"
      ],
      [
        "q",
        "u"
      ],
      [
        "a",
        "in"
      ],
      [
        "Ġ",
        "N"
      ],
      [
        "p",
        "p"
      ],
      [
        "ig",
        "h"
      ],
      [
        "k",
        "e"
      ],
      [
        "an",
        "t"
      ],
      [
        "Ġf",
        "rom"
      ],
      [
        "u",
        "d"
      ],
      [
        "Ġ",
        "2"
      ],
      [
        "a",
        "nd"
      ],
      [
        "Ġc",
        "h"
      ],
      [
        "o",
        "c"
      ],
      [
        "i",
        "v"
      ],
      [
        "Ġ",
        "G"
      ],
      [
        "Ġn",
        "e"
      ],
      [
        "Ġs",
        "e"
      ],
      [
        "or",
        "t"
      ],
      [
        "Ġ",
        "L"
      ],
      [
        "Ġ",
        "r"
      ],
      [
        "u",
        "n"
      ],
      [
        "u",
        "re"
      ],
      [
        "Ġn",
        "ot"
      ],
      [
        "ar",
        "t"
      ],
      [
        "âĢ",
        "Ļ"
      ],
      [
        "ic",
        "al"
      ],
      [
        "Ġc",
        "an"
      ],
      [
        "i",
        "al"
      ],
      [
        "Ġha",
        "ve"
      ],
      [
        "0",
        "0"
      ],
      [
        "Ġ",
        "âĢ"
      ],
      [
        "Ġ",
        "le"
      ],
      [
        "o",
        "g"
      ],
      [
        "Ġs",
        "h"
      ],
      [
        "Ġ",
        "en"
      ],
      [
        "Ġ",
        "O"
      ],
      [
        "Ġs",
        "p"
      ],
      [
        "ĠI",
        "n"
      ],
      [
        "igh",
        "t"
      ],
      [
        "ic",
        "h"
      ],
      [
        "Ġth",
        "is"
      ],
      [
        "al",
        "l"
      ],
      [
        "p",
        "t"
      ],
      [
        "r",
        "ou"
      ],
      [
        "ou",
        "ld"
      ],
      [
        "Ġa",
        "b"
      ],
      [
        "t",
        "her"
      ],
      [
        "g",
        "h"
      ],
      [
        "Ġw",
        "or"
      ],
      [
        "ou",
        "r"
      ],
      [
        "o",
        "st"
      ],
      [
        "ion",
        "s"
      ],
      [
        "Ġ",
        "J"
      ],
      [
        "ar",
        "d"
      ],
      [
        "om",
        "e"
      ],
      [
        "at",
        "ed"
      ],
      [
        "Ġw",
        "e"
      ],
      [
        "in",
        "e"
      ],
      [
        "u",
        "st"
      ],
      [
        "Ġ",
        "U"
      ],
      [
        "el",
        "l"
      ],
      [
        "'",
        "s"
      ],
      [
        "ou",
        "t"
      ],
      [
        "p",
        "er"
      ],
      [
        "e",
        "ar"
      ],
      [
        "i",
        "a"
      ],
      [
        "Ġu",
        "s"
      ],
      [
        "Ġ",
        "\""
      ],
      [
        "Ġin",
        "t"
      ],
      [
        "an",
        "s"
      ],
      [
        "as",
        "t"
      ],
      [
        "f",
        "f"
      ],
      [
        "Ġthe",
        "ir"
      ],
      [
        "Ġ",
        "im"
      ],
      [
        "Ġwh",
        "ich"
      ],
      [
        "a",
        "ct"
      ],
      [
        "p",
        "l"
      ],
      [
        "Ġp",
        "l"
      ],
      [
        "Ġ",
        "k"
      ],
      [
        "e",
        "c"
      ],
      [
        "ou",
        "s"
      ],
      [
        "d",
        "u"
      ],
      [
        "a",
        "ge"
      ],
      [
        "id",
        "e"
      ],
      [
        "a",
        "g"
      ],
      [
        "ĠT",
        "h"
      ],
      [
        "e",
        "w"
      ],
      [
        "a",
        "re"
      ],
      [
        "Ġw",
        "he"
      ],
      [
        "Ġal",
        "l"
      ],
      [
        "a",
        "k"
      ],
      [
        "Ġcon",
        "t"
      ],
      [
        "i",
        "z"
      ],
      [
        "Ġd",
        "is"
      ],
      [
        "i",
        "b"
      ],
      [
        "Ġthe",
        "y"
      ],
      [
        "en",
        "d"
      ],
      [
        "c",
        "c"
      ],
      [
        "Ġa",
        "d"
      ],
      [
        "on",
        "g"
      ],
      [
        "a",
        "p"
      ],
      [
        "r",
        "u"
      ],
      [
        "Ġh",
        "as"
      ],
      [
        "ar",
        "y"
      ],
      [
        "Ġin",
        "c"
      ],
      [
        "Ġm",
        "ore"
      ],
      [
        "ul",
        "t"
      ],
      [
        "ation",
        "s"
      ],
      [
        "Ġ1",
        "9"
      ],
      [
        "ve",
        "l"
      ],
      [
        "o",
        "od"
      ],
      [
        "at",
        "er"
      ],
      [
        "Ġcom",
        "p"
      ],
      [
        "Ġw",
        "ere"
      ],
      [
        "or",
        "m"
      ],
      [
        "Ġw",
        "ill"
      ],
      [
        "i",
        "p"
      ],
      [
        "Ġre",
        "s"
      ],
      [
        "Ġb",
        "ut"
      ],
      [
        "Ġd",
        "o"
      ],
      [
        "i",
        "re"
      ],
      [
        "Ġo",
        "ther"
      ],
      [
        "Ġc",
        "l"
      ],
      [
        "en",
        "ce"
      ],
      [
        "s",
        "o"
      ],
      [
        "Ġp",
        "er"
      ],
      [
        "u",
        "al"
      ],
      [
        "il",
        "d"
      ],
      [
        "ĠâĢ",
        "ľ"
      ],
      [
        "âĢ",
        "Ŀ"
      ],
      [
        "Ġon",
        "e"
      ],
      [
        "Ġm",
        "an"
      ],
      [
        "r",
        "y"
      ],
      [
        "o",
        "k"
      ],
      [
        "ab",
        "le"
      ],
      [
        "e",
        "p"
      ],
      [
        "o",
        "se"
      ],
      [
        "Ġm",
        "e"
      ],
      [
        "ĠS",
        "t"
      ],
      [
        "in",
        "d"
      ],
      [
        "an",
        "ce"
      ],
      [
        "Ġ",
        "j"
      ],
      [
        "res",
        "s"
      ],
      [
        "a",
        "ch"
      ],
      [
        "as",
        "s"
      ],
      [
        "ig",
        "n"
      ],
      [
        "ent",
        "s"
      ],
      [
        "Ġa",
        "r"
      ],
      [
        "Ġyou",
        "r"
      ],
      [
        "ac",
        "k"
      ],
      [
        "Ġp",
        "art"
      ],
      [
        "b",
        "er"
      ],
      [
        "Ġh",
        "is"
      ],
      [
        "Ġu",
        "n"
      ],
      [
        "re",
        "at"
      ],
      [
        "Ġ",
        "K"
      ],
      [
        "ct",
        "ion"
      ],
      [
        "am",
        "e"
      ],
      [
        "ic",
        "e"
      ],
      [
        "a",
        "u"
      ],
      [
        "a",
        "ce"
      ],
      [
        "as",
        "e"
      ],
      [
        "or",
        "d"
      ],
      [
        "a",
        "v"
      ],
      [
        "Ġal",
        "so"
      ],
      [
        "Ġt",
        "e"
      ],
      [
        "or",
        "y"
      ],
      [
        "Ġwh",
        "o"
      ],
      [
        "Ġa",
        "pp"
      ],
      [
        "it",
        "ion"
      ],
      [
        ")",
        "."
      ],
      [
        "ou",
        "nt"
      ],
      [
        "is",
        "h"
      ],
      [
        "a",
        "ke"
      ],
      [
        "Ġe",
        "v"
      ],
      [
        "Ġs",
        "o"
      ],
      [
        "Ġim",
        "p"
      ],
      [
        "Ġp",
        "re"
      ],
      [
        "Ġo",
        "ut"
      ],
      [
        "im",
        "e"
      ],
      [
        "Ġcom",
        "m"
      ],
      [
        "Ġab",
        "out"
      ],
      [
        "u",
        "b"
      ],
      [
        "ol",
        "og"
      ],
      [
        "ver",
        "y"
      ],
      [
        "on",
        "e"
      ],
      [
        "ĠI",
        "t"
      ],
      [
        "en",
        "s"
      ],
      [
        "Ġin",
        "f"
      ],
      [
        "c",
        "i"
      ],
      [
        "Ġst",
        "ud"
      ],
      [
        "re",
        "e"
      ],
      [
        "ĠC",
        "h"
      ],
      [
        "ou",
        "nd"
      ],
      [
        "Ġ",
        "V"
      ],
      [
        "it",
        "e"
      ],
      [
        "or",
        "s"
      ],
      [
        "i",
        "an"
      ],
      [
        "Ġy",
        "ear"
      ],
      [
        "Ġs",
        "y"
      ],
      [
        "m",
        "er"
      ],
      [
        "Ġp",
        "e"
      ],
      [
        "c",
        "es"
      ],
      [
        "u",
        "e"
      ],
      [
        "Ġu",
        "p"
      ],
      [
        "ĠTh",
        "is"
      ],
      [
        "Ġth",
        "an"
      ],
      [
        "Ġm",
        "ay"
      ],
      [
        "Ġbe",
        "en"
      ],
      [
        "an",
        "g"
      ],
      [
        "Ġwor",
        "k"
      ],
      [
        "i",
        "le"
      ],
      [
        "n",
        "ow"
      ],
      [
        "Ġthe",
        "m"
      ],
      [
        "Ġbe",
        "c"
      ],
      [
        "at",
        "es"
      ],
      [
        "r",
        "ic"
      ],
      [
        "Ġre",
        "c"
      ],
      [
        "Ġit",
        "s"
      ],
      [
        "l",
        "ow"
      ],
      [
        "Ġs",
        "ome"
      ],
      [
        "o",
        "ok"
      ],
      [
        "Ġa",
        "g"
      ],
      [
        "i",
        "e"
      ],
      [
        "Ġthe",
        "re"
      ],
      [
        "i",
        "ke"
      ],
      [
        "Ġh",
        "ad"
      ],
      [
        "Ġ",
        "3"
      ],
      [
        "Ġg",
        "o"
      ],
      [
        "Ġ",
        "qu"
      ],
      [
        "a",
        "il"
      ],
      [
        "ay",
        "s"
      ],
      [
        "ver",
        "s"
      ],
      [
        "nd",
        "er"
      ],
      [
        "on",
        "s"
      ],
      [
        "Ġint",
        "o"
      ],
      [
        "ou",
        "gh"
      ],
      [
        "p",
        "h"
      ],
      [
        "er",
        "v"
      ],
      [
        "r",
        "it"
      ],
      [
        "Ġt",
        "ra"
      ],
      [
        "op",
        "le"
      ],
      [
        "Ġ",
        "Y"
      ],
      [
        "Ġwhe",
        "n"
      ],
      [
        "on",
        "d"
      ],
      [
        "ter",
        "n"
      ],
      [
        "ing",
        "s"
      ],
      [
        "if",
        "f"
      ],
      [
        "Ġw",
        "ould"
      ],
      [
        "rou",
        "gh"
      ],
      [
        "m",
        "s"
      ],
      [
        "re",
        "n"
      ],
      [
        "Ġthe",
        "se"
      ],
      [
        "Ġt",
        "w"
      ],
      [
        "Ġs",
        "a"
      ],
      [
        "Ġo",
        "ver"
      ],
      [
        "l",
        "ic"
      ],
      [
        "Ġ",
        "ra"
      ],
      [
        "ir",
        "st"
      ],
      [
        "Ġt",
        "ime"
      ],
      [
        "ation",
        "al"
      ],
      [
        "t",
        "e"
      ],
      [
        "Ġin",
        "d"
      ],
      [
        "l",
        "ud"
      ],
      [
        "k",
        "s"
      ],
      [
        "Ġne",
        "w"
      ],
      [
        "o",
        "ve"
      ],
      [
        "Ġc",
        "ol"
      ],
      [
        "Ġre",
        "p"
      ],
      [
        "le",
        "ct"
      ],
      [
        "Ġcon",
        "s"
      ],
      [
        "Ġ",
        "ro"
      ],
      [
        "al",
        "ly"
      ],
      [
        "Ġd",
        "es"
      ],
      [
        "t",
        "s"
      ],
      [
        "j",
        "ect"
      ],
      [
        "l",
        "l"
      ],
      [
        "Ġa",
        "ct"
      ],
      [
        "Ġu",
        "nder"
      ],
      [
        "o",
        "b"
      ],
      [
        "Ġpe",
        "ople"
      ],
      [
        "Ġg",
        "en"
      ],
      [
        "y",
        "s"
      ],
      [
        "au",
        "se"
      ],
      [
        "he",
        "d"
      ],
      [
        "Ġm",
        "ost"
      ],
      [
        "re",
        "d"
      ],
      [
        "if",
        "ic"
      ],
      [
        "w",
        "n"
      ],
      [
        "Ġb",
        "l"
      ],
      [
        "ĠU",
        "n"
      ],
      [
        "Ġ2",
        "00"
      ],
      [
        "ment",
        "s"
      ],
      [
        "Ġre",
        "l"
      ],
      [
        "Ġk",
        "now"
      ],
      [
        "Ġbe",
        "t"
      ],
      [
        "it",
        "ies"
      ],
      [
        "Ġu",
        "se"
      ],
      [
        "vel",
        "op"
      ],
      [
        "st",
        "em"
      ],
      [
        "Ġh",
        "ow"
      ],
      [
        "w",
        "e"
      ],
      [
        "Ġd",
        "iff"
      ],
      [
        "Ġ2",
        "0"
      ],
      [
        "Ġa",
        "cc"
      ],
      [
        "Ġsu",
        "ch"
      ],
      [
        "Ġn",
        "o"
      ],
      [
        "Ġan",
        "y"
      ],
      [
        ")",
        ","
      ],
      [
        "Ġ",
        "if"
      ],
      [
        "Ġt",
        "r"
      ],
      [
        "l",
        "es"
      ],
      [
        "at",
        "ive"
      ],
      [
        "Ġl",
        "ike"
      ],
      [
        "Ġpro",
        "v"
      ],
      [
        "ĠH",
        "e"
      ],
      [
        "n",
        "ing"
      ],
      [
        "Ġo",
        "ur"
      ],
      [
        "Ġf",
        "irst"
      ],
      [
        "i",
        "ous"
      ],
      [
        "Ġof",
        "f"
      ],
      [
        "Ġinc",
        "lud"
      ],
      [
        "c",
        "ed"
      ],
      [
        "Ġon",
        "ly"
      ],
      [
        "ul",
        "ar"
      ],
      [
        "Ġch",
        "ild"
      ],
      [
        "is",
        "s"
      ],
      [
        "Ġe",
        "ff"
      ],
      [
        "p",
        "le"
      ],
      [
        "Ġtw",
        "o"
      ],
      [
        "al",
        "th"
      ],
      [
        "Ġp",
        "o"
      ],
      [
        "Ġp",
        "h"
      ],
      [
        "ri",
        "b"
      ],
      [
        "er",
        "m"
      ],
      [
        "o",
        "v"
      ],
      [
        "Ġre",
        "g"
      ],
      [
        "Ġa",
        "m"
      ],
      [
        "Ġsp",
        "ec"
      ],
      [
        "Ġus",
        "ed"
      ],
      [
        "Ġth",
        "rough"
      ],
      [
        "in",
        "t"
      ],
      [
        "os",
        "s"
      ],
      [
        "Ġex",
        "p"
      ],
      [
        "Ġne",
        "ed"
      ],
      [
        "o",
        "ol"
      ],
      [
        "i",
        "ed"
      ],
      [
        "Ġwh",
        "at"
      ],
      [
        "ĠA",
        "s"
      ],
      [
        "f",
        "ter"
      ],
      [
        "Ġde",
        "velop"
      ],
      [
        "Ġman",
        "y"
      ],
      [
        "at",
        "h"
      ],
      [
        "at",
        "ing"
      ],
      [
        "Ġ",
        "4"
      ],
      [
        "c",
        "ess"
      ],
      [
[...]
